/* Copyright 2019 The TensorFlow Authors. All Rights Reserved.

  Licensed under the Apache License, Version 2.0 (the "License");
  you may not use this file except in compliance with the License.
  You may obtain a copy of the License at

    http://www.apache.org/licenses/LICENSE-2.0

  Unless required by applicable law or agreed to in writing, software
  distributed under the License is distributed on an "AS IS" BASIS,
  WITHOUT WARRANTIES OR CONDITIONS OF ANY KIND, either express or implied.
  See the License for the specific language governing permissions and
  limitations under the License.
  ==============================================================================*/

// Automatically created from a TensorFlow Lite flatbuffer using the command:
// xxd -i sine_model.tflite > sine_model_data.cc
// See the README for a full description of the creation process.

#include "ph_model_data.h"

// We need to keep the data array aligned on some architectures.
#ifdef __has_attribute
#define HAVE_ATTRIBUTE(x) __has_attribute(x)
#else
#define HAVE_ATTRIBUTE(x) 0
#endif
#if HAVE_ATTRIBUTE(aligned) || (defined(__GNUC__) && !defined(__clang__))
#define DATA_ALIGN_ATTRIBUTE __attribute__((aligned(4)))
#else
#define DATA_ALIGN_ATTRIBUTE
#endif

const unsigned char g_sine_model_data[] DATA_ALIGN_ATTRIBUTE = {
  0x1c, 0x00, 0x00, 0x00, 0x54, 0x46, 0x4c, 0x33, 0x14, 0x00, 0x20, 0x00,
  0x04, 0x00, 0x08, 0x00, 0x0c, 0x00, 0x10, 0x00, 0x14, 0x00, 0x00, 0x00,
  0x18, 0x00, 0x1c, 0x00, 0x14, 0x00, 0x00, 0x00, 0x03, 0x00, 0x00, 0x00,
  0x18, 0x00, 0x00, 0x00, 0x24, 0x00, 0x00, 0x00, 0xdc, 0x00, 0x00, 0x00,
  0x24, 0x00, 0x00, 0x00, 0x84, 0x00, 0x00, 0x00, 0x7c, 0x00, 0x00, 0x00,
  0x03, 0x00, 0x00, 0x00, 0xa4, 0x07, 0x00, 0x00, 0xac, 0x06, 0x00, 0x00,
  0xbc, 0x01, 0x00, 0x00, 0x01, 0x00, 0x00, 0x00, 0xdc, 0x00, 0x00, 0x00,
  0x17, 0x00, 0x00, 0x00, 0xf4, 0x56, 0x00, 0x00, 0xf0, 0x56, 0x00, 0x00,
  0xf0, 0x55, 0x00, 0x00, 0x3c, 0x55, 0x00, 0x00, 0xc4, 0x52, 0x00, 0x00,
  0x34, 0x51, 0x00, 0x00, 0xbc, 0x30, 0x00, 0x00, 0x2c, 0x2e, 0x00, 0x00,
  0xb4, 0x0d, 0x00, 0x00, 0x24, 0x0c, 0x00, 0x00, 0xac, 0x09, 0x00, 0x00,
  0xfc, 0x08, 0x00, 0x00, 0x7c, 0x08, 0x00, 0x00, 0xe8, 0x07, 0x00, 0x00,
  0xbc, 0x56, 0x00, 0x00, 0xb8, 0x56, 0x00, 0x00, 0xb4, 0x56, 0x00, 0x00,
  0xb0, 0x56, 0x00, 0x00, 0xac, 0x56, 0x00, 0x00, 0xa8, 0x56, 0x00, 0x00,
  0xa4, 0x56, 0x00, 0x00, 0xa0, 0x56, 0x00, 0x00, 0x3c, 0x00, 0x00, 0x00,
  0x00, 0x00, 0x00, 0x00, 0x01, 0x00, 0x00, 0x00, 0x0c, 0x00, 0x00, 0x00,
  0x08, 0x00, 0x0c, 0x00, 0x04, 0x00, 0x08, 0x00, 0x08, 0x00, 0x00, 0x00,
  0x08, 0x00, 0x00, 0x00, 0x16, 0x00, 0x00, 0x00, 0x13, 0x00, 0x00, 0x00,
  0x6d, 0x69, 0x6e, 0x5f, 0x72, 0x75, 0x6e, 0x74, 0x69, 0x6d, 0x65, 0x5f,
  0x76, 0x65, 0x72, 0x73, 0x69, 0x6f, 0x6e, 0x00, 0xa2, 0xaa, 0xff, 0xff,
  0x04, 0x00, 0x00, 0x00, 0x10, 0x00, 0x00, 0x00, 0x31, 0x2e, 0x31, 0x34,
  0x2e, 0x30, 0x00, 0x00, 0x00, 0x00, 0x00, 0x00, 0x00, 0x00, 0x00, 0x00,
  0x0f, 0x00, 0x00, 0x00, 0x4d, 0x4c, 0x49, 0x52, 0x20, 0x43, 0x6f, 0x6e,
  0x76, 0x65, 0x72, 0x74, 0x65, 0x64, 0x2e, 0x00, 0x00, 0x00, 0x0e, 0x00,
  0x18, 0x00, 0x04, 0x00, 0x08, 0x00, 0x0c, 0x00, 0x10, 0x00, 0x14, 0x00,
  0x0e, 0x00, 0x00, 0x00, 0x14, 0x00, 0x00, 0x00, 0x68, 0x00, 0x00, 0x00,
  0x6c, 0x00, 0x00, 0x00, 0x70, 0x00, 0x00, 0x00, 0x90, 0x00, 0x00, 0x00,
  0x15, 0x00, 0x00, 0x00, 0xb8, 0x55, 0x00, 0x00, 0x28, 0x55, 0x00, 0x00,
  0x7c, 0x54, 0x00, 0x00, 0xe4, 0x53, 0x00, 0x00, 0x54, 0x51, 0x00, 0x00,
  0xdc, 0x4f, 0x00, 0x00, 0x4c, 0x2f, 0x00, 0x00, 0xd4, 0x2c, 0x00, 0x00,
  0x44, 0x0c, 0x00, 0x00, 0xcc, 0x0a, 0x00, 0x00, 0x3c, 0x08, 0x00, 0x00,
  0xa4, 0x07, 0x00, 0x00, 0x0c, 0x07, 0x00, 0x00, 0x8c, 0x06, 0x00, 0x00,
  0x80, 0x05, 0x00, 0x00, 0x6c, 0x04, 0x00, 0x00, 0x70, 0x03, 0x00, 0x00,
  0x84, 0x02, 0x00, 0x00, 0x98, 0x01, 0x00, 0x00, 0xf8, 0x00, 0x00, 0x00,
  0x7c, 0x00, 0x00, 0x00, 0x01, 0x00, 0x00, 0x00, 0x00, 0x00, 0x00, 0x00,
  0x01, 0x00, 0x00, 0x00, 0x14, 0x00, 0x00, 0x00, 0x08, 0x00, 0x00, 0x00,
  0x0c, 0x06, 0x00, 0x00, 0xfc, 0x04, 0x00, 0x00, 0x00, 0x04, 0x00, 0x00,
  0x04, 0x03, 0x00, 0x00, 0x18, 0x02, 0x00, 0x00, 0x2c, 0x01, 0x00, 0x00,
  0x90, 0x00, 0x00, 0x00, 0x18, 0x00, 0x00, 0x00, 0x04, 0x00, 0x00, 0x00,
  0x6d, 0x61, 0x69, 0x6e, 0x00, 0x00, 0x0a, 0x00, 0x10, 0x00, 0x04, 0x00,
  0x08, 0x00, 0x0c, 0x00, 0x0a, 0x00, 0x00, 0x00, 0x02, 0x00, 0x00, 0x00,
  0x10, 0x00, 0x00, 0x00, 0x04, 0x00, 0x00, 0x00, 0x01, 0x00, 0x00, 0x00,
  0x14, 0x00, 0x00, 0x00, 0x01, 0x00, 0x00, 0x00, 0x13, 0x00, 0x00, 0x00,
  0x2c, 0xfa, 0xff, 0xff, 0x06, 0x00, 0x00, 0x00, 0x00, 0x00, 0x00, 0x06,
  0x02, 0x00, 0x00, 0x00, 0x28, 0xab, 0xff, 0xff, 0x14, 0x00, 0x00, 0x00,
  0x15, 0x00, 0x00, 0x00, 0x18, 0x00, 0x00, 0x00, 0x30, 0x00, 0x00, 0x00,
  0x20, 0x00, 0x00, 0x00, 0x02, 0x00, 0x00, 0x00, 0x01, 0x00, 0x00, 0x00,
  0x01, 0x00, 0x00, 0x00, 0x08, 0x00, 0x00, 0x00, 0x49, 0x64, 0x65, 0x6e,
  0x74, 0x69, 0x74, 0x79, 0x00, 0x00, 0x00, 0x00, 0x02, 0x00, 0x00, 0x00,
  0xff, 0xff, 0xff, 0xff, 0x01, 0x00, 0x00, 0x00, 0x0c, 0xab, 0xff, 0xff,
  0xae, 0xfc, 0xff, 0xff, 0x00, 0x00, 0x00, 0x08, 0x01, 0x00, 0x00, 0x00,
  0x18, 0x00, 0x00, 0x00, 0x0c, 0x00, 0x00, 0x00, 0x04, 0x00, 0x00, 0x00,
  0x28, 0xab, 0xff, 0xff, 0x01, 0x00, 0x00, 0x00, 0x13, 0x00, 0x00, 0x00,
  0x03, 0x00, 0x00, 0x00, 0x12, 0x00, 0x00, 0x00, 0x0b, 0x00, 0x00, 0x00,
  0x0c, 0x00, 0x00, 0x00, 0x98, 0xfa, 0xff, 0xff, 0x00, 0x00, 0x00, 0x09,
  0x14, 0x00, 0x00, 0x00, 0x14, 0x00, 0x00, 0x00, 0x18, 0x00, 0x00, 0x00,
  0x30, 0x00, 0x00, 0x00, 0x20, 0x00, 0x00, 0x00, 0x02, 0x00, 0x00, 0x00,
  0x01, 0x00, 0x00, 0x00, 0x01, 0x00, 0x00, 0x00, 0x09, 0x00, 0x00, 0x00,
  0x49, 0x64, 0x65, 0x6e, 0x74, 0x69, 0x74, 0x79, 0x31, 0x00, 0x00, 0x00,
  0x02, 0x00, 0x00, 0x00, 0xff, 0xff, 0xff, 0xff, 0x01, 0x00, 0x00, 0x00,
  0x14, 0xac, 0xff, 0xff, 0x08, 0x00, 0x00, 0x00, 0x0c, 0x00, 0x00, 0x00,
  0x01, 0x00, 0x00, 0x00, 0xe1, 0x50, 0xc8, 0x3e, 0x01, 0x00, 0x00, 0x00,
  0x80, 0xff, 0xff, 0xff, 0xff, 0xff, 0xff, 0xff, 0x46, 0xfd, 0xff, 0xff,
  0x00, 0x00, 0x00, 0x08, 0x01, 0x00, 0x00, 0x00, 0x1c, 0x00, 0x00, 0x00,
  0x10, 0x00, 0x00, 0x00, 0x04, 0x00, 0x00, 0x00, 0x3e, 0xfc, 0xff, 0xff,
  0x00, 0x00, 0x00, 0x01, 0x01, 0x00, 0x00, 0x00, 0x12, 0x00, 0x00, 0x00,
  0x03, 0x00, 0x00, 0x00, 0x11, 0x00, 0x00, 0x00, 0x09, 0x00, 0x00, 0x00,
  0x0a, 0x00, 0x00, 0x00, 0x34, 0xfb, 0xff, 0xff, 0x00, 0x00, 0x00, 0x09,
  0x14, 0x00, 0x00, 0x00, 0x13, 0x00, 0x00, 0x00, 0x18, 0x00, 0x00, 0x00,
  0x7c, 0x00, 0x00, 0x00, 0x6c, 0x00, 0x00, 0x00, 0x02, 0x00, 0x00, 0x00,
  0x01, 0x00, 0x00, 0x00, 0x08, 0x00, 0x00, 0x00, 0x55, 0x00, 0x00, 0x00,
  0x73, 0x65, 0x71, 0x75, 0x65, 0x6e, 0x74, 0x69, 0x61, 0x6c, 0x5f, 0x35,
  0x2f, 0x64, 0x65, 0x6e, 0x73, 0x65, 0x5f, 0x33, 0x34, 0x2f, 0x4d, 0x61,
  0x74, 0x4d, 0x75, 0x6c, 0x3b, 0x73, 0x65, 0x71, 0x75, 0x65, 0x6e, 0x74,
  0x69, 0x61, 0x6c, 0x5f, 0x35, 0x2f, 0x64, 0x65, 0x6e, 0x73, 0x65, 0x5f,
  0x33, 0x34, 0x2f, 0x52, 0x65, 0x6c, 0x75, 0x3b, 0x73, 0x65, 0x71, 0x75,
  0x65, 0x6e, 0x74, 0x69, 0x61, 0x6c, 0x5f, 0x35, 0x2f, 0x64, 0x65, 0x6e,
  0x73, 0x65, 0x5f, 0x33, 0x34, 0x2f, 0x42, 0x69, 0x61, 0x73, 0x41, 0x64,
  0x64, 0x00, 0x00, 0x00, 0x02, 0x00, 0x00, 0x00, 0xff, 0xff, 0xff, 0xff,
  0x08, 0x00, 0x00, 0x00, 0xfc, 0xac, 0xff, 0xff, 0x08, 0x00, 0x00, 0x00,
  0x0c, 0x00, 0x00, 0x00, 0x01, 0x00, 0x00, 0x00, 0xa2, 0xd0, 0x92, 0x3e,
  0x01, 0x00, 0x00, 0x00, 0x80, 0xff, 0xff, 0xff, 0xff, 0xff, 0xff, 0xff,
  0x2e, 0xfe, 0xff, 0xff, 0x00, 0x00, 0x00, 0x08, 0x01, 0x00, 0x00, 0x00,
  0x1c, 0x00, 0x00, 0x00, 0x10, 0x00, 0x00, 0x00, 0x04, 0x00, 0x00, 0x00,
  0x26, 0xfd, 0xff, 0xff, 0x00, 0x00, 0x00, 0x01, 0x01, 0x00, 0x00, 0x00,
  0x11, 0x00, 0x00, 0x00, 0x03, 0x00, 0x00, 0x00, 0x10, 0x00, 0x00, 0x00,
  0x07, 0x00, 0x00, 0x00, 0x08, 0x00, 0x00, 0x00, 0x1c, 0xfc, 0xff, 0xff,
  0x00, 0x00, 0x00, 0x09, 0x14, 0x00, 0x00, 0x00, 0x12, 0x00, 0x00, 0x00,
  0x18, 0x00, 0x00, 0x00, 0x7c, 0x00, 0x00, 0x00, 0x6c, 0x00, 0x00, 0x00,
  0x02, 0x00, 0x00, 0x00, 0x01, 0x00, 0x00, 0x00, 0x40, 0x00, 0x00, 0x00,
  0x55, 0x00, 0x00, 0x00, 0x73, 0x65, 0x71, 0x75, 0x65, 0x6e, 0x74, 0x69,
  0x61, 0x6c, 0x5f, 0x35, 0x2f, 0x64, 0x65, 0x6e, 0x73, 0x65, 0x5f, 0x33,
  0x33, 0x2f, 0x4d, 0x61, 0x74, 0x4d, 0x75, 0x6c, 0x3b, 0x73, 0x65, 0x71,
  0x75, 0x65, 0x6e, 0x74, 0x69, 0x61, 0x6c, 0x5f, 0x35, 0x2f, 0x64, 0x65,
  0x6e, 0x73, 0x65, 0x5f, 0x33, 0x33, 0x2f, 0x52, 0x65, 0x6c, 0x75, 0x3b,
  0x73, 0x65, 0x71, 0x75, 0x65, 0x6e, 0x74, 0x69, 0x61, 0x6c, 0x5f, 0x35,
  0x2f, 0x64, 0x65, 0x6e, 0x73, 0x65, 0x5f, 0x33, 0x33, 0x2f, 0x42, 0x69,
  0x61, 0x73, 0x41, 0x64, 0x64, 0x00, 0x00, 0x00, 0x02, 0x00, 0x00, 0x00,
  0xff, 0xff, 0xff, 0xff, 0x40, 0x00, 0x00, 0x00, 0xe4, 0xad, 0xff, 0xff,
  0x08, 0x00, 0x00, 0x00, 0x0c, 0x00, 0x00, 0x00, 0x01, 0x00, 0x00, 0x00,
  0x65, 0xce, 0x8f, 0x3d, 0x01, 0x00, 0x00, 0x00, 0x80, 0xff, 0xff, 0xff,
  0xff, 0xff, 0xff, 0xff, 0x16, 0xff, 0xff, 0xff, 0x00, 0x00, 0x00, 0x08,
  0x01, 0x00, 0x00, 0x00, 0x1c, 0x00, 0x00, 0x00, 0x10, 0x00, 0x00, 0x00,
  0x04, 0x00, 0x00, 0x00, 0x0e, 0xfe, 0xff, 0xff, 0x00, 0x00, 0x00, 0x01,
  0x01, 0x00, 0x00, 0x00, 0x10, 0x00, 0x00, 0x00, 0x03, 0x00, 0x00, 0x00,
  0x0f, 0x00, 0x00, 0x00, 0x05, 0x00, 0x00, 0x00, 0x06, 0x00, 0x00, 0x00,
  0x04, 0xfd, 0xff, 0xff, 0x00, 0x00, 0x00, 0x09, 0x14, 0x00, 0x00, 0x00,
  0x11, 0x00, 0x00, 0x00, 0x18, 0x00, 0x00, 0x00, 0x7c, 0x00, 0x00, 0x00,
  0x6c, 0x00, 0x00, 0x00, 0x02, 0x00, 0x00, 0x00, 0x01, 0x00, 0x00, 0x00,
  0x80, 0x00, 0x00, 0x00, 0x55, 0x00, 0x00, 0x00, 0x73, 0x65, 0x71, 0x75,
  0x65, 0x6e, 0x74, 0x69, 0x61, 0x6c, 0x5f, 0x35, 0x2f, 0x64, 0x65, 0x6e,
  0x73, 0x65, 0x5f, 0x33, 0x32, 0x2f, 0x4d, 0x61, 0x74, 0x4d, 0x75, 0x6c,
  0x3b, 0x73, 0x65, 0x71, 0x75, 0x65, 0x6e, 0x74, 0x69, 0x61, 0x6c, 0x5f,
  0x35, 0x2f, 0x64, 0x65, 0x6e, 0x73, 0x65, 0x5f, 0x33, 0x32, 0x2f, 0x52,
  0x65, 0x6c, 0x75, 0x3b, 0x73, 0x65, 0x71, 0x75, 0x65, 0x6e, 0x74, 0x69,
  0x61, 0x6c, 0x5f, 0x35, 0x2f, 0x64, 0x65, 0x6e, 0x73, 0x65, 0x5f, 0x33,
  0x32, 0x2f, 0x42, 0x69, 0x61, 0x73, 0x41, 0x64, 0x64, 0x00, 0x00, 0x00,
  0x02, 0x00, 0x00, 0x00, 0xff, 0xff, 0xff, 0xff, 0x80, 0x00, 0x00, 0x00,
  0xcc, 0xae, 0xff, 0xff, 0x08, 0x00, 0x00, 0x00, 0x0c, 0x00, 0x00, 0x00,
  0x01, 0x00, 0x00, 0x00, 0x10, 0xfa, 0xb5, 0x3c, 0x01, 0x00, 0x00, 0x00,
  0x80, 0xff, 0xff, 0xff, 0xff, 0xff, 0xff, 0xff, 0x00, 0x00, 0x0e, 0x00,
  0x18, 0x00, 0x08, 0x00, 0x0c, 0x00, 0x10, 0x00, 0x07, 0x00, 0x14, 0x00,
  0x0e, 0x00, 0x00, 0x00, 0x00, 0x00, 0x00, 0x08, 0x01, 0x00, 0x00, 0x00,
  0x1c, 0x00, 0x00, 0x00, 0x10, 0x00, 0x00, 0x00, 0x04, 0x00, 0x00, 0x00,
  0x06, 0xff, 0xff, 0xff, 0x00, 0x00, 0x00, 0x01, 0x01, 0x00, 0x00, 0x00,
  0x0f, 0x00, 0x00, 0x00, 0x03, 0x00, 0x00, 0x00, 0x0e, 0x00, 0x00, 0x00,
  0x03, 0x00, 0x00, 0x00, 0x04, 0x00, 0x00, 0x00, 0xfc, 0xfd, 0xff, 0xff,
  0x00, 0x00, 0x00, 0x09, 0x14, 0x00, 0x00, 0x00, 0x10, 0x00, 0x00, 0x00,
  0x18, 0x00, 0x00, 0x00, 0x7c, 0x00, 0x00, 0x00, 0x6c, 0x00, 0x00, 0x00,
  0x02, 0x00, 0x00, 0x00, 0x01, 0x00, 0x00, 0x00, 0x40, 0x00, 0x00, 0x00,
  0x55, 0x00, 0x00, 0x00, 0x73, 0x65, 0x71, 0x75, 0x65, 0x6e, 0x74, 0x69,
  0x61, 0x6c, 0x5f, 0x35, 0x2f, 0x64, 0x65, 0x6e, 0x73, 0x65, 0x5f, 0x33,
  0x31, 0x2f, 0x4d, 0x61, 0x74, 0x4d, 0x75, 0x6c, 0x3b, 0x73, 0x65, 0x71,
  0x75, 0x65, 0x6e, 0x74, 0x69, 0x61, 0x6c, 0x5f, 0x35, 0x2f, 0x64, 0x65,
  0x6e, 0x73, 0x65, 0x5f, 0x33, 0x31, 0x2f, 0x52, 0x65, 0x6c, 0x75, 0x3b,
  0x73, 0x65, 0x71, 0x75, 0x65, 0x6e, 0x74, 0x69, 0x61, 0x6c, 0x5f, 0x35,
  0x2f, 0x64, 0x65, 0x6e, 0x73, 0x65, 0x5f, 0x33, 0x31, 0x2f, 0x42, 0x69,
  0x61, 0x73, 0x41, 0x64, 0x64, 0x00, 0x00, 0x00, 0x02, 0x00, 0x00, 0x00,
  0xff, 0xff, 0xff, 0xff, 0x40, 0x00, 0x00, 0x00, 0xc4, 0xaf, 0xff, 0xff,
  0x08, 0x00, 0x00, 0x00, 0x0c, 0x00, 0x00, 0x00, 0x01, 0x00, 0x00, 0x00,
  0x22, 0x59, 0xda, 0x3c, 0x01, 0x00, 0x00, 0x00, 0x80, 0xff, 0xff, 0xff,
  0xff, 0xff, 0xff, 0xff, 0x00, 0x00, 0x0e, 0x00, 0x1a, 0x00, 0x08, 0x00,
  0x0c, 0x00, 0x10, 0x00, 0x07, 0x00, 0x14, 0x00, 0x0e, 0x00, 0x00, 0x00,
  0x00, 0x00, 0x00, 0x08, 0x01, 0x00, 0x00, 0x00, 0x24, 0x00, 0x00, 0x00,
  0x18, 0x00, 0x00, 0x00, 0x0c, 0x00, 0x00, 0x00, 0x00, 0x00, 0x06, 0x00,
  0x08, 0x00, 0x07, 0x00, 0x06, 0x00, 0x00, 0x00, 0x00, 0x00, 0x00, 0x01,
  0x01, 0x00, 0x00, 0x00, 0x0e, 0x00, 0x00, 0x00, 0x03, 0x00, 0x00, 0x00,
  0x0d, 0x00, 0x00, 0x00, 0x01, 0x00, 0x00, 0x00, 0x02, 0x00, 0x00, 0x00,
  0x18, 0xff, 0xff, 0xff, 0x09, 0x00, 0x00, 0x00, 0x00, 0x00, 0x00, 0x09,
  0x04, 0x00, 0x00, 0x00, 0x0c, 0xff, 0xff, 0xff, 0x00, 0x00, 0x00, 0x09,
  0x14, 0x00, 0x00, 0x00, 0x0f, 0x00, 0x00, 0x00, 0x18, 0x00, 0x00, 0x00,
  0x7c, 0x00, 0x00, 0x00, 0x6c, 0x00, 0x00, 0x00, 0x02, 0x00, 0x00, 0x00,
  0x01, 0x00, 0x00, 0x00, 0x08, 0x00, 0x00, 0x00, 0x55, 0x00, 0x00, 0x00,
  0x73, 0x65, 0x71, 0x75, 0x65, 0x6e, 0x74, 0x69, 0x61, 0x6c, 0x5f, 0x35,
  0x2f, 0x64, 0x65, 0x6e, 0x73, 0x65, 0x5f, 0x33, 0x30, 0x2f, 0x4d, 0x61,
  0x74, 0x4d, 0x75, 0x6c, 0x3b, 0x73, 0x65, 0x71, 0x75, 0x65, 0x6e, 0x74,
  0x69, 0x61, 0x6c, 0x5f, 0x35, 0x2f, 0x64, 0x65, 0x6e, 0x73, 0x65, 0x5f,
  0x33, 0x30, 0x2f, 0x52, 0x65, 0x6c, 0x75, 0x3b, 0x73, 0x65, 0x71, 0x75,
  0x65, 0x6e, 0x74, 0x69, 0x61, 0x6c, 0x5f, 0x35, 0x2f, 0x64, 0x65, 0x6e,
  0x73, 0x65, 0x5f, 0x33, 0x30, 0x2f, 0x42, 0x69, 0x61, 0x73, 0x41, 0x64,
  0x64, 0x00, 0x00, 0x00, 0x02, 0x00, 0x00, 0x00, 0xff, 0xff, 0xff, 0xff,
  0x08, 0x00, 0x00, 0x00, 0xd4, 0xb0, 0xff, 0xff, 0x08, 0x00, 0x00, 0x00,
  0x0c, 0x00, 0x00, 0x00, 0x01, 0x00, 0x00, 0x00, 0x11, 0xfd, 0x09, 0x3d,
  0x01, 0x00, 0x00, 0x00, 0x80, 0xff, 0xff, 0xff, 0xff, 0xff, 0xff, 0xff,
  0x00, 0x00, 0x0a, 0x00, 0x0c, 0x00, 0x00, 0x00, 0x04, 0x00, 0x08, 0x00,
  0x0a, 0x00, 0x00, 0x00, 0x10, 0x00, 0x00, 0x00, 0x04, 0x00, 0x00, 0x00,
  0x01, 0x00, 0x00, 0x00, 0x0d, 0x00, 0x00, 0x00, 0x01, 0x00, 0x00, 0x00,
  0x00, 0x00, 0x00, 0x00, 0x0c, 0x00, 0x10, 0x00, 0x0b, 0x00, 0x00, 0x00,
  0x0c, 0x00, 0x04, 0x00, 0x0c, 0x00, 0x00, 0x00, 0x72, 0x00, 0x00, 0x00,
  0x00, 0x00, 0x00, 0x72, 0x01, 0x00, 0x00, 0x00, 0x14, 0x00, 0x1c, 0x00,
  0x08, 0x00, 0x07, 0x00, 0x0c, 0x00, 0x10, 0x00, 0x14, 0x00, 0x00, 0x00,
  0x00, 0x00, 0x18, 0x00, 0x14, 0x00, 0x00, 0x00, 0x00, 0x00, 0x00, 0x09,
  0x14, 0x00, 0x00, 0x00, 0x0e, 0x00, 0x00, 0x00, 0x18, 0x00, 0x00, 0x00,
  0x34, 0x00, 0x00, 0x00, 0x24, 0x00, 0x00, 0x00, 0x02, 0x00, 0x00, 0x00,
  0x01, 0x00, 0x00, 0x00, 0x01, 0x00, 0x00, 0x00, 0x0c, 0x00, 0x00, 0x00,
  0x74, 0x66, 0x6c, 0x2e, 0x71, 0x75, 0x61, 0x6e, 0x74, 0x69, 0x7a, 0x65,
  0x00, 0x00, 0x00, 0x00, 0x02, 0x00, 0x00, 0x00, 0xff, 0xff, 0xff, 0xff,
  0x01, 0x00, 0x00, 0x00, 0x94, 0xb1, 0xff, 0xff, 0x08, 0x00, 0x00, 0x00,
  0x0c, 0x00, 0x00, 0x00, 0x01, 0x00, 0x00, 0x00, 0xe1, 0xe0, 0x60, 0x3d,
  0x01, 0x00, 0x00, 0x00, 0x80, 0xff, 0xff, 0xff, 0xff, 0xff, 0xff, 0xff,
  0x00, 0x00, 0x00, 0x00, 0x2a, 0xb2, 0xff, 0xff, 0x04, 0x00, 0x00, 0x00,
  0x04, 0x00, 0x00, 0x00, 0x30, 0x00, 0x00, 0x00, 0x1e, 0xb2, 0xff, 0xff,
  0x00, 0x00, 0x00, 0x02, 0x10, 0x00, 0x00, 0x00, 0x0d, 0x00, 0x00, 0x00,
  0x10, 0x00, 0x00, 0x00, 0x48, 0x00, 0x00, 0x00, 0x01, 0x00, 0x00, 0x00,
  0x01, 0x00, 0x00, 0x00, 0x35, 0x00, 0x00, 0x00, 0x73, 0x65, 0x71, 0x75,
  0x65, 0x6e, 0x74, 0x69, 0x61, 0x6c, 0x5f, 0x35, 0x2f, 0x64, 0x65, 0x6e,
  0x73, 0x65, 0x5f, 0x33, 0x35, 0x2f, 0x42, 0x69, 0x61, 0x73, 0x41, 0x64,
  0x64, 0x2f, 0x52, 0x65, 0x61, 0x64, 0x56, 0x61, 0x72, 0x69, 0x61, 0x62,
  0x6c, 0x65, 0x4f, 0x70, 0x2f, 0x72, 0x65, 0x73, 0x6f, 0x75, 0x72, 0x63,
  0x65, 0x00, 0x00, 0x00, 0x24, 0xb2, 0xff, 0xff, 0x08, 0x00, 0x00, 0x00,
  0x0c, 0x00, 0x00, 0x00, 0x01, 0x00, 0x00, 0x00, 0xe2, 0x38, 0x9d, 0x3b,
  0x01, 0x00, 0x00, 0x00, 0x00, 0x00, 0x00, 0x00, 0x00, 0x00, 0x00, 0x00,
  0x00, 0x00, 0x00, 0x00, 0xba, 0xb2, 0xff, 0xff, 0x04, 0x00, 0x00, 0x00,
  0x08, 0x00, 0x00, 0x00, 0xe1, 0x27, 0xe9, 0x1a, 0xc7, 0xd4, 0x2f, 0x81,
  0xb2, 0xb2, 0xff, 0xff, 0x00, 0x00, 0x00, 0x09, 0x10, 0x00, 0x00, 0x00,
  0x0c, 0x00, 0x00, 0x00, 0x14, 0x00, 0x00, 0x00, 0x34, 0x00, 0x00, 0x00,
  0x02, 0x00, 0x00, 0x00, 0x01, 0x00, 0x00, 0x00, 0x08, 0x00, 0x00, 0x00,
  0x1c, 0x00, 0x00, 0x00, 0x73, 0x65, 0x71, 0x75, 0x65, 0x6e, 0x74, 0x69,
  0x61, 0x6c, 0x5f, 0x35, 0x2f, 0x64, 0x65, 0x6e, 0x73, 0x65, 0x5f, 0x33,
  0x35, 0x2f, 0x4d, 0x61, 0x74, 0x4d, 0x75, 0x6c, 0x00, 0x00, 0x00, 0x00,
  0xa4, 0xb2, 0xff, 0xff, 0x08, 0x00, 0x00, 0x00, 0x0c, 0x00, 0x00, 0x00,
  0x01, 0x00, 0x00, 0x00, 0xd1, 0x12, 0x89, 0x3c, 0x01, 0x00, 0x00, 0x00,
  0x00, 0x00, 0x00, 0x00, 0x00, 0x00, 0x00, 0x00, 0x36, 0xb3, 0xff, 0xff,
  0x04, 0x00, 0x00, 0x00, 0x20, 0x00, 0x00, 0x00, 0x00, 0x00, 0x00, 0x00,
  0xbc, 0x01, 0x00, 0x00, 0xcf, 0xff, 0xff, 0xff, 0x6d, 0x00, 0x00, 0x00,
  0x58, 0xff, 0xff, 0xff, 0xc7, 0xff, 0xff, 0xff, 0xb7, 0x01, 0x00, 0x00,
  0x1e, 0x01, 0x00, 0x00, 0x46, 0xb3, 0xff, 0xff, 0x00, 0x00, 0x00, 0x02,
  0x10, 0x00, 0x00, 0x00, 0x0b, 0x00, 0x00, 0x00, 0x10, 0x00, 0x00, 0x00,
  0x48, 0x00, 0x00, 0x00, 0x01, 0x00, 0x00, 0x00, 0x08, 0x00, 0x00, 0x00,
  0x35, 0x00, 0x00, 0x00, 0x73, 0x65, 0x71, 0x75, 0x65, 0x6e, 0x74, 0x69,
  0x61, 0x6c, 0x5f, 0x35, 0x2f, 0x64, 0x65, 0x6e, 0x73, 0x65, 0x5f, 0x33,
  0x34, 0x2f, 0x42, 0x69, 0x61, 0x73, 0x41, 0x64, 0x64, 0x2f, 0x52, 0x65,
  0x61, 0x64, 0x56, 0x61, 0x72, 0x69, 0x61, 0x62, 0x6c, 0x65, 0x4f, 0x70,
  0x2f, 0x72, 0x65, 0x73, 0x6f, 0x75, 0x72, 0x63, 0x65, 0x00, 0x00, 0x00,
  0x4c, 0xb3, 0xff, 0xff, 0x08, 0x00, 0x00, 0x00, 0x0c, 0x00, 0x00, 0x00,
  0x01, 0x00, 0x00, 0x00, 0xed, 0x7c, 0x0f, 0x3a, 0x01, 0x00, 0x00, 0x00,
  0x00, 0x00, 0x00, 0x00, 0x00, 0x00, 0x00, 0x00, 0x00, 0x00, 0x00, 0x00,
  0xe2, 0xb3, 0xff, 0xff, 0x04, 0x00, 0x00, 0x00, 0x00, 0x02, 0x00, 0x00,
  0x1c, 0x06, 0x19, 0xe5, 0xf5, 0xe0, 0x02, 0xe4, 0xe3, 0xe6, 0xe0, 0x01,
  0xde, 0x0a, 0xdd, 0xea, 0x1e, 0xeb, 0xec, 0x13, 0xf1, 0xfb, 0xed, 0xf4,
  0x06, 0xf6, 0x15, 0xec, 0x00, 0x18, 0xed, 0xf2, 0x13, 0x15, 0xf8, 0xe9,
  0xe5, 0xf3, 0xdf, 0x11, 0x1b, 0xe5, 0xe1, 0x18, 0x09, 0x1a, 0xe5, 0x1d,
  0xf1, 0xea, 0xe2, 0x0f, 0xe4, 0xf1, 0x19, 0xdf, 0xe6, 0xf7, 0xee, 0x05,
  0x01, 0xde, 0xde, 0xfb, 0xf6, 0x21, 0xe1, 0x0c, 0xed, 0x0b, 0x0a, 0x30,
  0x16, 0xe5, 0x20, 0xed, 0xe5, 0xd8, 0xec, 0x34, 0x18, 0xf0, 0x21, 0xf2,
  0xfd, 0x3c, 0x2e, 0x24, 0xff, 0x2e, 0x1e, 0x2e, 0xfc, 0x21, 0x0d, 0x53,
  0x1d, 0x26, 0x11, 0x47, 0xf9, 0x1a, 0xdc, 0xe0, 0x14, 0x22, 0x06, 0x90,
  0xf1, 0x14, 0x08, 0x2c, 0x1c, 0x31, 0x18, 0xe5, 0x2c, 0x34, 0x50, 0xde,
  0x0e, 0xec, 0x10, 0x1c, 0x25, 0x1e, 0xbd, 0x24, 0xee, 0xe7, 0x17, 0xf7,
  0x23, 0x0f, 0x09, 0x04, 0xf8, 0xe4, 0xda, 0xe6, 0x03, 0x21, 0x0e, 0xd7,
  0xe9, 0x15, 0x04, 0x1d, 0x22, 0x0f, 0xfa, 0xf4, 0xe4, 0x15, 0xec, 0xff,
  0xe0, 0xdb, 0xff, 0xe7, 0x12, 0xfb, 0xe9, 0x15, 0x14, 0x22, 0xdc, 0xf1,
  0x19, 0xec, 0x18, 0xe6, 0x04, 0x09, 0xdf, 0x04, 0x0c, 0xfe, 0xdf, 0x1a,
  0x17, 0xeb, 0x10, 0x0e, 0xe6, 0xe3, 0x18, 0xf6, 0xdc, 0x11, 0xe8, 0xf0,
  0xfa, 0x04, 0x01, 0xe4, 0x1b, 0xfa, 0xf1, 0xce, 0x0d, 0xf8, 0xf1, 0x1f,
  0xfd, 0xee, 0x1c, 0xfa, 0xec, 0x1d, 0xdd, 0x0c, 0xe8, 0xec, 0x18, 0xd4,
  0xea, 0xda, 0xde, 0xe9, 0x0e, 0xe5, 0xe7, 0xe5, 0xdd, 0xcb, 0x0e, 0xfe,
  0xf4, 0xf1, 0xe2, 0x23, 0x1d, 0xff, 0xf9, 0x0e, 0xe7, 0x16, 0xf4, 0xac,
  0x04, 0x10, 0x0d, 0x0d, 0x0e, 0x07, 0x02, 0xff, 0x03, 0xe3, 0x11, 0xfe,
  0xe3, 0x05, 0x18, 0xf9, 0xfd, 0xaf, 0x08, 0xf4, 0x01, 0xd3, 0xea, 0x0a,
  0xe7, 0x21, 0xa8, 0x23, 0xfe, 0xea, 0x0b, 0xe8, 0x1a, 0xe7, 0x03, 0x21,
  0xeb, 0x20, 0x22, 0x17, 0x0f, 0xf7, 0xfa, 0xbd, 0xf6, 0xe5, 0xea, 0xe6,
  0xf9, 0x1f, 0xf1, 0x0a, 0xf4, 0x20, 0x1f, 0x00, 0x1a, 0x0e, 0x14, 0x3f,
  0x1d, 0xf7, 0x0a, 0xf2, 0x05, 0x22, 0x10, 0xf6, 0x16, 0xeb, 0xda, 0xdc,
  0xef, 0xef, 0x07, 0x18, 0x0e, 0x07, 0x29, 0xf1, 0x1e, 0xe4, 0x12, 0xef,
  0x11, 0xe6, 0x19, 0xda, 0xed, 0xef, 0xd8, 0xeb, 0xe1, 0xff, 0xe8, 0xf7,
  0xf5, 0xf7, 0x1c, 0xf0, 0x02, 0xee, 0xfd, 0xf0, 0x0a, 0xff, 0x06, 0x15,
  0x0f, 0xe7, 0x03, 0xe7, 0x22, 0xed, 0xdc, 0x00, 0xf6, 0xe0, 0xe9, 0x0f,
  0x0a, 0xe0, 0xf3, 0xdd, 0x06, 0xde, 0x17, 0xf5, 0xe9, 0x0d, 0x08, 0xff,
  0x18, 0xec, 0x05, 0xf4, 0xeb, 0xfe, 0x10, 0x1d, 0xed, 0x12, 0xf5, 0xf9,
  0xde, 0xfc, 0xe3, 0x23, 0x0e, 0x2b, 0xde, 0x2f, 0x0a, 0xf9, 0x12, 0x04,
  0xe0, 0x1a, 0x07, 0x1a, 0x16, 0xf2, 0xdf, 0x0f, 0x09, 0x31, 0x1e, 0x15,
  0xed, 0x23, 0x00, 0x48, 0xfd, 0xf7, 0x1d, 0x24, 0x10, 0x35, 0x0f, 0x1f,
  0x07, 0xf5, 0xf6, 0xe8, 0x08, 0xfb, 0xf6, 0x9f, 0xe6, 0xf4, 0xe6, 0x2a,
  0xde, 0x2a, 0xe9, 0xe2, 0x34, 0x1e, 0x1f, 0xf3, 0x0b, 0xf3, 0x39, 0x3d,
  0xe2, 0xe9, 0xaa, 0x2a, 0xdf, 0xa3, 0xf8, 0xf4, 0xfc, 0x9d, 0x14, 0x23,
  0xf5, 0xec, 0x8f, 0x0c, 0x1f, 0xef, 0xf2, 0xfc, 0xed, 0xf4, 0x0e, 0xf1,
  0xf8, 0xee, 0xe1, 0xf4, 0x01, 0xfb, 0xf0, 0x81, 0xfa, 0x0a, 0x11, 0xc2,
  0xdc, 0xf4, 0x0e, 0x26, 0xfb, 0xec, 0x16, 0xf5, 0x05, 0xdb, 0xe7, 0x43,
  0x1d, 0x18, 0x07, 0x14, 0xdf, 0x25, 0x04, 0xef, 0x1e, 0x00, 0xb2, 0x18,
  0x15, 0xe3, 0x29, 0x22, 0x16, 0x1c, 0x40, 0xf0, 0xd2, 0xb5, 0xff, 0xff,
  0x00, 0x00, 0x00, 0x09, 0x10, 0x00, 0x00, 0x00, 0x0a, 0x00, 0x00, 0x00,
  0x14, 0x00, 0x00, 0x00, 0x34, 0x00, 0x00, 0x00, 0x02, 0x00, 0x00, 0x00,
  0x08, 0x00, 0x00, 0x00, 0x40, 0x00, 0x00, 0x00, 0x1c, 0x00, 0x00, 0x00,
  0x73, 0x65, 0x71, 0x75, 0x65, 0x6e, 0x74, 0x69, 0x61, 0x6c, 0x5f, 0x35,
  0x2f, 0x64, 0x65, 0x6e, 0x73, 0x65, 0x5f, 0x33, 0x34, 0x2f, 0x4d, 0x61,
  0x74, 0x4d, 0x75, 0x6c, 0x00, 0x00, 0x00, 0x00, 0xc4, 0xb5, 0xff, 0xff,
  0x08, 0x00, 0x00, 0x00, 0x0c, 0x00, 0x00, 0x00, 0x01, 0x00, 0x00, 0x00,
  0xf9, 0x6e, 0xff, 0x3b, 0x01, 0x00, 0x00, 0x00, 0x00, 0x00, 0x00, 0x00,
  0x00, 0x00, 0x00, 0x00, 0x56, 0xb6, 0xff, 0xff, 0x04, 0x00, 0x00, 0x00,
  0x00, 0x01, 0x00, 0x00, 0x00, 0x00, 0x00, 0x00, 0xea, 0xff, 0xff, 0xff,
  0x00, 0x00, 0x00, 0x00, 0x40, 0x01, 0x00, 0x00, 0xd6, 0xff, 0xff, 0xff,
  0x5f, 0x00, 0x00, 0x00, 0xe1, 0xff, 0xff, 0xff, 0xde, 0x01, 0x00, 0x00,
  0xd3, 0xff, 0xff, 0xff, 0xd8, 0xff, 0xff, 0xff, 0x4f, 0x01, 0x00, 0x00,
  0xe1, 0xff, 0xff, 0xff, 0xcb, 0xff, 0xff, 0xff, 0xcb, 0xff, 0xff, 0xff,
  0xdc, 0xff, 0xff, 0xff, 0x98, 0x01, 0x00, 0x00, 0x00, 0x00, 0x00, 0x00,
  0x11, 0x00, 0x00, 0x00, 0xe4, 0xff, 0xff, 0xff, 0xcc, 0xff, 0xff, 0xff,
  0xf2, 0xff, 0xff, 0xff, 0x57, 0x01, 0x00, 0x00, 0x08, 0x00, 0x00, 0x00,
  0x4b, 0x01, 0x00, 0x00, 0x00, 0x00, 0x00, 0x00, 0x79, 0x01, 0x00, 0x00,
  0x00, 0x00, 0x00, 0x00, 0x43, 0x00, 0x00, 0x00, 0xcb, 0xff, 0xff, 0xff,
  0x00, 0x00, 0x00, 0x00, 0xd3, 0xff, 0xff, 0xff, 0x54, 0x01, 0x00, 0x00,
  0xcb, 0xff, 0xff, 0xff, 0x81, 0x01, 0x00, 0x00, 0xd7, 0xff, 0xff, 0xff,
  0xfe, 0x01, 0x00, 0x00, 0xf8, 0xff, 0xff, 0xff, 0xf1, 0xff, 0xff, 0xff,
  0x00, 0x00, 0x00, 0x00, 0xec, 0xff, 0xff, 0xff, 0xa8, 0xff, 0xff, 0xff,
  0x00, 0x00, 0x00, 0x00, 0x00, 0x00, 0x00, 0x00, 0x9b, 0xfc, 0xff, 0xff,
  0x00, 0x00, 0x00, 0x00, 0xbc, 0xff, 0xff, 0xff, 0xcb, 0xff, 0xff, 0xff,
  0xbb, 0x01, 0x00, 0x00, 0xf7, 0xff, 0xff, 0xff, 0x8a, 0x01, 0x00, 0x00,
  0xf2, 0xff, 0xff, 0xff, 0xd3, 0xff, 0xff, 0xff, 0xe5, 0x01, 0x00, 0x00,
  0xa3, 0x01, 0x00, 0x00, 0xa9, 0x01, 0x00, 0x00, 0xcb, 0xff, 0xff, 0xff,
  0xbd, 0xff, 0xff, 0xff, 0x00, 0x00, 0x00, 0x00, 0x7f, 0x01, 0x00, 0x00,
  0xb9, 0x01, 0x00, 0x00, 0xf7, 0xff, 0xff, 0xff, 0x00, 0x00, 0x00, 0x00,
  0x95, 0xfd, 0xff, 0xff, 0x80, 0x01, 0x00, 0x00, 0x46, 0xb7, 0xff, 0xff,
  0x00, 0x00, 0x00, 0x02, 0x10, 0x00, 0x00, 0x00, 0x09, 0x00, 0x00, 0x00,
  0x10, 0x00, 0x00, 0x00, 0x48, 0x00, 0x00, 0x00, 0x01, 0x00, 0x00, 0x00,
  0x40, 0x00, 0x00, 0x00, 0x35, 0x00, 0x00, 0x00, 0x73, 0x65, 0x71, 0x75,
  0x65, 0x6e, 0x74, 0x69, 0x61, 0x6c, 0x5f, 0x35, 0x2f, 0x64, 0x65, 0x6e,
  0x73, 0x65, 0x5f, 0x33, 0x33, 0x2f, 0x42, 0x69, 0x61, 0x73, 0x41, 0x64,
  0x64, 0x2f, 0x52, 0x65, 0x61, 0x64, 0x56, 0x61, 0x72, 0x69, 0x61, 0x62,
  0x6c, 0x65, 0x4f, 0x70, 0x2f, 0x72, 0x65, 0x73, 0x6f, 0x75, 0x72, 0x63,
  0x65, 0x00, 0x00, 0x00, 0x4c, 0xb7, 0xff, 0xff, 0x08, 0x00, 0x00, 0x00,
  0x0c, 0x00, 0x00, 0x00, 0x01, 0x00, 0x00, 0x00, 0x4a, 0xe2, 0x1b, 0x3a,
  0x01, 0x00, 0x00, 0x00, 0x00, 0x00, 0x00, 0x00, 0x00, 0x00, 0x00, 0x00,
  0x00, 0x00, 0x00, 0x00, 0xe2, 0xb7, 0xff, 0xff, 0x04, 0x00, 0x00, 0x00,
  0x00, 0x20, 0x00, 0x00, 0xfe, 0x01, 0x06, 0xfb, 0x03, 0x05, 0xfd, 0x01,
  0x02, 0xfd, 0x00, 0x00, 0xfc, 0xfe, 0x00, 0xfa, 0x02, 0x05, 0x00, 0xfa,
  0x05, 0xfd, 0x03, 0xfa, 0x00, 0x03, 0x00, 0xfe, 0xfb, 0x04, 0xfd, 0x03,
  0xfa, 0x01, 0xfe, 0x02, 0xfb, 0xfa, 0x03, 0xff, 0xff, 0x00, 0x03, 0xfd,
  0xfb, 0xfe, 0x00, 0xfa, 0x01, 0xfd, 0xfb, 0x04, 0x05, 0xfa, 0x03, 0x04,
  0x01, 0x00, 0x00, 0xfd, 0x05, 0xfc, 0x06, 0xfe, 0x04, 0x04, 0x02, 0x05,
  0x00, 0xff, 0xfe, 0xfe, 0xfd, 0xfb, 0x06, 0xfc, 0x00, 0x02, 0xfd, 0x05,
  0x02, 0xff, 0xfb, 0x04, 0xfc, 0xfb, 0xfc, 0xfa, 0x03, 0x04, 0x01, 0x02,
  0xfb, 0x01, 0x06, 0x02, 0x04, 0x01, 0x05, 0x04, 0xff, 0x02, 0xff, 0xfd,
  0xfe, 0x02, 0xfe, 0xff, 0xff, 0x05, 0x00, 0xfe, 0xfa, 0xfc, 0xfb, 0x05,
  0xfd, 0xfc, 0xfe, 0xff, 0x00, 0x05, 0x06, 0x04, 0xfb, 0x02, 0xff, 0x03,
  0xf5, 0x09, 0x05, 0xde, 0xff, 0xfd, 0x08, 0xf9, 0xfe, 0x02, 0xfe, 0x00,
  0x08, 0x04, 0x06, 0x00, 0x06, 0xfe, 0xff, 0x02, 0x00, 0x02, 0x00, 0x04,
  0x02, 0xfa, 0x05, 0x09, 0x05, 0xfb, 0x05, 0xfd, 0x07, 0x06, 0x01, 0x08,
  0xfc, 0x03, 0x08, 0x03, 0x03, 0xe2, 0x04, 0x05, 0x05, 0x07, 0xff, 0xfe,
  0xfa, 0x06, 0x03, 0x02, 0xfe, 0x03, 0xfe, 0xfd, 0x06, 0x03, 0x06, 0x01,
  0xff, 0x00, 0xfe, 0xff, 0x02, 0xfa, 0xcf, 0x06, 0x0b, 0x04, 0xfe, 0xfe,
  0x08, 0xff, 0x01, 0x02, 0x05, 0xc4, 0xff, 0x01, 0x01, 0x02, 0xfd, 0xfd,
  0x02, 0x04, 0xff, 0x01, 0x02, 0x03, 0x05, 0x04, 0x01, 0xfc, 0xfd, 0xfb,
  0xfd, 0x00, 0x05, 0x01, 0x05, 0x02, 0x0e, 0x04, 0x04, 0xfc, 0x04, 0x05,
  0xfa, 0xfd, 0xff, 0x09, 0xfb, 0xff, 0x01, 0xfb, 0xfc, 0xfd, 0x02, 0x03,
  0x01, 0x03, 0x02, 0x03, 0xff, 0x06, 0x01, 0x04, 0x06, 0xfb, 0xfc, 0xfd,
  0xfe, 0x02, 0xfd, 0x00, 0x03, 0xfd, 0x04, 0xfa, 0xfb, 0xff, 0xfc, 0xfe,
  0xff, 0xfb, 0xfb, 0xfe, 0xfc, 0xfc, 0x01, 0xfd, 0xfb, 0xfa, 0x02, 0xfb,
  0x02, 0x04, 0x02, 0xfe, 0x00, 0xfe, 0x03, 0x01, 0xfa, 0xfd, 0x02, 0x00,
  0xfd, 0xfe, 0x05, 0xfd, 0xfd, 0xfe, 0x00, 0x03, 0xfa, 0xfd, 0xff, 0xfe,
  0xfb, 0x03, 0x00, 0x05, 0x03, 0x00, 0x00, 0x00, 0x05, 0xfa, 0x06, 0x06,
  0x05, 0xfd, 0x01, 0xf9, 0xfa, 0x03, 0x02, 0x06, 0x05, 0xfc, 0x04, 0x01,
  0x06, 0x02, 0x05, 0x02, 0xfe, 0x02, 0x05, 0xff, 0x03, 0xfb, 0x00, 0x01,
  0xfc, 0xfe, 0x00, 0xfa, 0xfa, 0xfe, 0xfb, 0x05, 0x06, 0x00, 0x03, 0xfb,
  0xfa, 0x00, 0xfb, 0x01, 0x04, 0x07, 0x01, 0xfb, 0xfb, 0x00, 0xfa, 0x04,
  0xfa, 0xfe, 0x00, 0xfa, 0x04, 0x06, 0x01, 0x04, 0xfd, 0xfb, 0xfb, 0x02,
  0x03, 0x01, 0xfe, 0xff, 0xfe, 0xfc, 0x1c, 0xd5, 0x04, 0x05, 0x01, 0xfd,
  0x00, 0x12, 0x05, 0xff, 0x04, 0x03, 0x01, 0x03, 0xfd, 0xfb, 0x06, 0x00,
  0x06, 0xfe, 0xfb, 0x03, 0x03, 0x06, 0x00, 0x16, 0xfd, 0xfe, 0xfb, 0xfe,
  0x06, 0x06, 0xfb, 0x09, 0x02, 0xfe, 0xfe, 0x01, 0x06, 0xd2, 0xfd, 0xfe,
  0x04, 0x02, 0x02, 0x01, 0x05, 0xfc, 0xfe, 0x04, 0x00, 0xfe, 0x02, 0xfe,
  0x04, 0x03, 0xfc, 0xfd, 0x01, 0x00, 0x01, 0xff, 0x04, 0xfd, 0xf1, 0x01,
  0x05, 0xfc, 0xfc, 0x04, 0x07, 0x06, 0xff, 0xfe, 0x02, 0xf4, 0x00, 0x03,
  0x06, 0xff, 0xfd, 0x00, 0x08, 0xfb, 0xfb, 0x01, 0x05, 0xfb, 0x04, 0x06,
  0x00, 0x07, 0x08, 0x05, 0xfa, 0x01, 0x04, 0x02, 0xfb, 0x08, 0x08, 0xfc,
  0xfe, 0x04, 0x02, 0xfd, 0xfb, 0x04, 0xff, 0x00, 0x00, 0x01, 0x04, 0xfe,
  0xfe, 0x04, 0xfe, 0x05, 0x04, 0x05, 0xfb, 0x04, 0xfd, 0x04, 0x05, 0xfa,
  0x01, 0x05, 0xfb, 0xfa, 0x02, 0x03, 0x04, 0xfd, 0x01, 0xf9, 0xfe, 0xfb,
  0x00, 0xfd, 0xfa, 0xfe, 0xff, 0x00, 0x05, 0x01, 0xff, 0xfa, 0x04, 0x01,
  0xf9, 0xfc, 0x01, 0xf9, 0xfa, 0x06, 0xfa, 0x01, 0x02, 0x01, 0xfa, 0x04,
  0xfc, 0x01, 0xff, 0x06, 0x02, 0xfb, 0x05, 0xfe, 0x05, 0xf9, 0x02, 0x03,
  0x05, 0xfd, 0xfe, 0xf9, 0x00, 0x02, 0x02, 0x02, 0xfc, 0x01, 0xfe, 0xfb,
  0xfd, 0xf9, 0x04, 0x05, 0xff, 0x01, 0x07, 0x01, 0x03, 0x02, 0xfd, 0x03,
  0xfe, 0x05, 0xfc, 0xff, 0xf9, 0x06, 0xfb, 0x04, 0x00, 0xfb, 0xfa, 0x01,
  0x02, 0xfe, 0x06, 0xfb, 0x06, 0xff, 0x05, 0x05, 0xfc, 0x04, 0xfa, 0xfb,
  0xfa, 0xfb, 0xfb, 0x03, 0x02, 0xf8, 0xfa, 0x06, 0x01, 0x02, 0xfc, 0xfa,
  0xff, 0x05, 0x06, 0xfb, 0xfa, 0x01, 0x06, 0x02, 0x06, 0xfd, 0xfb, 0xfc,
  0xfb, 0xfd, 0xfc, 0xf8, 0xfe, 0x01, 0xfd, 0x02, 0xfc, 0xfe, 0x18, 0xcc,
  0xfe, 0x03, 0x06, 0xf6, 0xfd, 0x10, 0x01, 0x00, 0x07, 0x03, 0x04, 0xfc,
  0xfe, 0x01, 0xfb, 0xfb, 0xfc, 0x07, 0x05, 0x00, 0x04, 0xfa, 0x00, 0x14,
  0xfb, 0x05, 0x04, 0xfe, 0xfb, 0xff, 0xfc, 0x0d, 0x02, 0x00, 0x00, 0x02,
  0x05, 0xd8, 0xfd, 0xfe, 0x05, 0x03, 0xfb, 0xfe, 0x03, 0xff, 0x03, 0x01,
  0x02, 0x05, 0x00, 0x03, 0x04, 0x04, 0x08, 0x06, 0xfd, 0x06, 0xfb, 0x06,
  0x03, 0xfd, 0xd0, 0xff, 0x12, 0xff, 0x03, 0xfd, 0x02, 0xfc, 0x01, 0x06,
  0xfe, 0xcc, 0xfb, 0x04, 0x02, 0xfd, 0xff, 0x03, 0xff, 0x06, 0x06, 0x02,
  0x03, 0xfe, 0xfe, 0xff, 0xfa, 0x04, 0xfd, 0x03, 0x06, 0x02, 0x06, 0x04,
  0x05, 0x04, 0x14, 0x04, 0xfe, 0xf1, 0x06, 0xfa, 0xf1, 0xfd, 0xfe, 0x06,
  0x05, 0x02, 0x00, 0x02, 0xff, 0x05, 0xfa, 0x05, 0x02, 0x03, 0xfa, 0x02,
  0xfd, 0x06, 0x02, 0xfb, 0xfa, 0x00, 0x06, 0xfc, 0xfa, 0xfc, 0x01, 0xf9,
  0xf9, 0xfa, 0xfe, 0x02, 0xfa, 0xf9, 0xfa, 0x03, 0x02, 0x04, 0xfd, 0x04,
  0xf9, 0xfc, 0x05, 0xfe, 0x01, 0x00, 0xfd, 0xfa, 0xff, 0xfb, 0x02, 0x03,
  0x04, 0xfd, 0xfe, 0xfb, 0xfa, 0x05, 0xfc, 0x03, 0xfe, 0xfe, 0x05, 0x02,
  0xfd, 0xfd, 0x01, 0x02, 0x06, 0xfe, 0x06, 0x03, 0x03, 0x01, 0x03, 0x03,
  0x05, 0xfe, 0xf9, 0xfc, 0xfa, 0x03, 0xff, 0x00, 0x06, 0x02, 0x03, 0x05,
  0x03, 0xff, 0x05, 0xf9, 0x03, 0xff, 0xfa, 0xfe, 0xfc, 0x01, 0xfd, 0xfc,
  0xfd, 0x02, 0x04, 0x03, 0x03, 0xfe, 0xfe, 0xff, 0xfa, 0xfe, 0x02, 0x06,
  0xff, 0xfb, 0xfb, 0x00, 0x03, 0xfc, 0x05, 0xfc, 0x04, 0xfd, 0x00, 0x04,
  0x01, 0xf9, 0x02, 0x06, 0xfc, 0xfd, 0xfb, 0xf9, 0x00, 0x00, 0x05, 0x04,
  0x02, 0xff, 0x03, 0xfc, 0xfd, 0x01, 0x05, 0xfb, 0x05, 0x04, 0x07, 0x02,
  0xf9, 0x08, 0x26, 0xb5, 0xfe, 0x05, 0x02, 0x00, 0xfb, 0x1c, 0xfd, 0x05,
  0xfe, 0x01, 0x00, 0x02, 0xfe, 0x09, 0xfb, 0xfe, 0x05, 0xfe, 0x07, 0x03,
  0x05, 0x06, 0xfe, 0x2a, 0x02, 0x01, 0xfb, 0xf9, 0x02, 0x09, 0x02, 0x0f,
  0x01, 0x01, 0x03, 0x00, 0xf9, 0x98, 0x04, 0xfc, 0x02, 0xfd, 0x01, 0xfa,
  0x06, 0x09, 0xff, 0x09, 0x01, 0xf9, 0x07, 0x00, 0x05, 0xfc, 0x04, 0xfd,
  0x08, 0x07, 0xff, 0x03, 0x06, 0x03, 0xf7, 0x08, 0x0b, 0x09, 0x01, 0x04,
  0x08, 0x0b, 0xff, 0xfd, 0x08, 0xfe, 0x01, 0x09, 0xff, 0x05, 0xfc, 0xfa,
  0x05, 0x06, 0x04, 0x05, 0xfb, 0x04, 0xfe, 0x06, 0xfa, 0xff, 0x0a, 0xfb,
  0xfb, 0x02, 0x01, 0xfd, 0xfd, 0x00, 0x03, 0x00, 0x03, 0xfb, 0x07, 0xfb,
  0xfe, 0x04, 0x04, 0x05, 0xfa, 0xfe, 0x00, 0x02, 0xfa, 0x03, 0x05, 0xf9,
  0xfb, 0xfb, 0xfc, 0x08, 0x08, 0x05, 0xff, 0x06, 0x03, 0x02, 0xfb, 0xff,
  0x03, 0x05, 0x02, 0xff, 0x05, 0xfc, 0xf9, 0x03, 0xfb, 0xfd, 0xff, 0xfd,
  0xfa, 0x02, 0xfc, 0x00, 0x00, 0xfb, 0xfa, 0x03, 0xfe, 0xfb, 0x04, 0x04,
  0x01, 0x05, 0x01, 0xfa, 0xf9, 0x04, 0x01, 0x03, 0x00, 0x01, 0xf9, 0x03,
  0x01, 0x04, 0xfd, 0x05, 0x02, 0x01, 0x00, 0xfc, 0xfe, 0xfc, 0xfd, 0xf9,
  0xfe, 0x01, 0x03, 0x03, 0x05, 0x01, 0xfa, 0x03, 0x04, 0x03, 0xfc, 0x02,
  0xfb, 0xfa, 0xf9, 0xf9, 0xfa, 0xff, 0xfe, 0x03, 0x05, 0xfb, 0x02, 0xff,
  0xfd, 0xfc, 0x04, 0xfb, 0xff, 0x06, 0x02, 0xfa, 0xf8, 0x03, 0x04, 0x05,
  0xfc, 0xfc, 0x04, 0x06, 0xfb, 0x06, 0x02, 0xff, 0x04, 0xfb, 0x05, 0xfa,
  0x04, 0xfb, 0x00, 0x03, 0x02, 0xfd, 0x04, 0xfd, 0xf9, 0x03, 0xfd, 0x01,
  0x02, 0xfa, 0x01, 0x04, 0xf9, 0xfc, 0x05, 0x06, 0x01, 0xfb, 0x05, 0x03,
  0xfa, 0x02, 0xff, 0xfc, 0x04, 0xf9, 0xff, 0x01, 0xff, 0x02, 0xfe, 0xfb,
  0x02, 0x01, 0xfd, 0x03, 0x04, 0x02, 0x05, 0x01, 0xf9, 0x05, 0x03, 0x01,
  0x05, 0xf9, 0xff, 0xfc, 0x02, 0x02, 0xff, 0xfd, 0x05, 0x04, 0x04, 0xff,
  0x00, 0xfb, 0xfc, 0x01, 0xfb, 0xff, 0x04, 0xfc, 0x04, 0xfc, 0xfa, 0xfc,
  0x02, 0x00, 0x03, 0x01, 0x05, 0x01, 0xff, 0xfa, 0xf9, 0x05, 0xfa, 0xfe,
  0xff, 0x04, 0xfa, 0xfc, 0x00, 0x06, 0xfb, 0x05, 0x00, 0xfe, 0x03, 0x03,
  0x00, 0xfe, 0x03, 0x03, 0x02, 0x04, 0xfa, 0x03, 0x04, 0x05, 0xfc, 0xfe,
  0x00, 0x00, 0x02, 0xfc, 0x03, 0xff, 0x00, 0xfa, 0xfb, 0x02, 0x01, 0x00,
  0x00, 0x01, 0x03, 0x04, 0x03, 0x06, 0x03, 0x03, 0xfd, 0x00, 0x04, 0xff,
  0xff, 0xfc, 0x02, 0xfc, 0x05, 0x00, 0x04, 0xfb, 0x06, 0x04, 0x03, 0x02,
  0x04, 0xfc, 0x01, 0xfe, 0x05, 0x00, 0xfb, 0x01, 0xff, 0x02, 0x05, 0xfe,
  0xf2, 0x04, 0x14, 0xd5, 0x01, 0x04, 0xfc, 0xfe, 0x01, 0x07, 0x03, 0x06,
  0xff, 0x01, 0xfb, 0xfc, 0x04, 0x06, 0xff, 0x01, 0x06, 0x07, 0x01, 0x06,
  0x04, 0xff, 0x03, 0x15, 0xfa, 0x04, 0x00, 0x03, 0xfd, 0xff, 0x04, 0x0e,
  0x00, 0xfb, 0xfd, 0x00, 0x00, 0xdc, 0xfb, 0xfc, 0x00, 0x01, 0x01, 0x04,
  0xfd, 0xfd, 0x00, 0xfe, 0x00, 0x04, 0x01, 0xfd, 0x00, 0xfb, 0xff, 0x02,
  0x07, 0xfd, 0x00, 0xfe, 0x05, 0xfb, 0xca, 0xff, 0x0a, 0xff, 0xfd, 0x07,
  0xfc, 0x03, 0x03, 0x04, 0x02, 0xc8, 0xfc, 0x05, 0x03, 0x00, 0x03, 0x07,
  0xff, 0xfe, 0x05, 0xfe, 0x01, 0x03, 0xff, 0xff, 0xfc, 0xfc, 0x09, 0xff,
  0x00, 0x03, 0x04, 0x01, 0x05, 0xfe, 0x10, 0xfd, 0xfb, 0xf8, 0x06, 0xfb,
  0xfd, 0x02, 0xfc, 0x08, 0x00, 0x03, 0x06, 0xfb, 0x00, 0x01, 0x01, 0xfd,
  0xfe, 0x05, 0x03, 0x08, 0xfd, 0x04, 0xfa, 0xfd, 0x02, 0x00, 0x00, 0x00,
  0x02, 0x02, 0xfd, 0xfa, 0x06, 0xfe, 0xfe, 0xfd, 0x00, 0xfd, 0x00, 0x04,
  0x05, 0x02, 0xfc, 0xff, 0xff, 0x00, 0xfc, 0xfb, 0x02, 0x05, 0x04, 0x06,
  0xfe, 0x06, 0xff, 0xfe, 0xfa, 0xfa, 0x02, 0x05, 0xff, 0xfe, 0x03, 0x01,
  0xfc, 0xfa, 0x01, 0xfd, 0x04, 0xf9, 0x04, 0x01, 0xfe, 0xf9, 0x01, 0x03,
  0x03, 0xfc, 0xfa, 0xfe, 0x00, 0xfb, 0xfb, 0x03, 0xfe, 0x00, 0x03, 0x05,
  0x02, 0xfb, 0x04, 0x03, 0xfc, 0x01, 0x02, 0x00, 0x00, 0x02, 0x00, 0x03,
  0x04, 0x03, 0xfc, 0xfe, 0x00, 0x02, 0xf9, 0xfe, 0xfc, 0xfb, 0x04, 0xff,
  0x04, 0x00, 0xfe, 0xfa, 0xfd, 0xfb, 0x03, 0x04, 0xfb, 0x03, 0xfb, 0xfc,
  0x05, 0xfe, 0x05, 0x05, 0xfe, 0xfe, 0xfe, 0x03, 0x06, 0x05, 0x00, 0xfe,
  0xfc, 0xfc, 0xff, 0x05, 0x04, 0xfe, 0x03, 0x01, 0x01, 0xfe, 0xfb, 0xfb,
  0x00, 0xfa, 0x02, 0x03, 0xfb, 0x01, 0x05, 0x01, 0xfe, 0x00, 0xfa, 0xfb,
  0xfc, 0x04, 0x01, 0x04, 0xfd, 0xfe, 0xfe, 0xf9, 0x02, 0xfb, 0xfa, 0x02,
  0xfb, 0xf9, 0xfb, 0x01, 0x00, 0xfa, 0xff, 0xf9, 0xfe, 0x05, 0xff, 0x01,
  0x03, 0x05, 0x06, 0x02, 0xfb, 0xfb, 0x02, 0xfd, 0xf9, 0x02, 0x03, 0xff,
  0xfa, 0xfd, 0x05, 0xfd, 0xfa, 0xff, 0xfa, 0xfd, 0xfe, 0x04, 0x02, 0xfa,
  0xff, 0x04, 0x02, 0x06, 0xfa, 0xfb, 0x06, 0xf9, 0x00, 0xfd, 0xfc, 0xff,
  0x04, 0x05, 0x03, 0x05, 0xf8, 0xfe, 0xfe, 0xfb, 0x04, 0xfe, 0xff, 0x04,
  0x05, 0x04, 0x03, 0xf9, 0xf9, 0xfb, 0x04, 0xfd, 0x01, 0x02, 0xfe, 0xf9,
  0x04, 0x06, 0xf9, 0xfe, 0xfc, 0x06, 0xfa, 0x04, 0x00, 0x01, 0xfc, 0x05,
  0xfa, 0x05, 0xf8, 0x01, 0x04, 0xfb, 0x04, 0xfe, 0xfc, 0x01, 0xfb, 0xfd,
  0x05, 0x05, 0xf9, 0x06, 0x01, 0xff, 0xfb, 0x05, 0xfb, 0xf8, 0x04, 0x02,
  0x04, 0x03, 0xf9, 0x04, 0xfb, 0x01, 0xfa, 0xfa, 0xff, 0x03, 0xfd, 0xfc,
  0xfe, 0x04, 0xfd, 0xfb, 0xfc, 0xff, 0x04, 0xfd, 0xfe, 0xfc, 0xfc, 0xfb,
  0xf9, 0xfb, 0xfb, 0xfe, 0x03, 0xfe, 0xfa, 0x04, 0x05, 0xfb, 0xff, 0xff,
  0x06, 0xfc, 0x01, 0xfe, 0x04, 0x03, 0x06, 0xff, 0xfc, 0x03, 0x06, 0x06,
  0x04, 0xfe, 0x00, 0xfa, 0xfd, 0xfe, 0x01, 0x01, 0xfb, 0xfb, 0x01, 0xff,
  0xfc, 0xfc, 0xfc, 0x01, 0x05, 0x02, 0xfb, 0xfa, 0x03, 0x04, 0x03, 0x06,
  0x05, 0x02, 0x01, 0xfe, 0xfe, 0xfc, 0x04, 0xfe, 0xfe, 0xff, 0xff, 0xfc,
  0x02, 0x00, 0x06, 0x00, 0x00, 0x04, 0x03, 0x04, 0xfb, 0xfd, 0xfd, 0xfa,
  0x02, 0xff, 0x03, 0xfa, 0x05, 0xfa, 0x03, 0xfc, 0x02, 0x03, 0xfd, 0xfd,
  0x05, 0x05, 0xfc, 0xfb, 0x04, 0x02, 0xfc, 0x00, 0x03, 0xfb, 0x05, 0xfe,
  0x02, 0x02, 0xfc, 0x00, 0xfe, 0xfb, 0xfb, 0x02, 0x03, 0x04, 0x03, 0xfe,
  0x04, 0xfc, 0xfb, 0x01, 0x03, 0xff, 0x06, 0xfd, 0xfa, 0xfa, 0xf9, 0x01,
  0x01, 0x04, 0x05, 0xfc, 0xfe, 0xfd, 0x05, 0x02, 0xfd, 0xff, 0x00, 0xfb,
  0x04, 0x03, 0x01, 0xfb, 0x03, 0xfc, 0xfa, 0x04, 0x02, 0x00, 0x00, 0x01,
  0xfc, 0x01, 0x03, 0x03, 0x01, 0xfd, 0x03, 0xfc, 0x04, 0xfd, 0xfe, 0xfb,
  0xfd, 0x06, 0x03, 0x03, 0xfb, 0xfb, 0xfe, 0xfe, 0x05, 0x01, 0x06, 0x02,
  0x02, 0xfb, 0x06, 0x01, 0x00, 0x00, 0xf9, 0x01, 0xfa, 0x02, 0x05, 0x06,
  0xf9, 0xf9, 0xfb, 0xfe, 0xfa, 0x00, 0x00, 0xfd, 0x05, 0xfb, 0x04, 0x02,
  0x03, 0xfe, 0xfa, 0x01, 0xff, 0xfa, 0xff, 0x02, 0xfe, 0x05, 0xfa, 0xfc,
  0x03, 0xfe, 0x05, 0x00, 0xfe, 0xfd, 0x04, 0x00, 0x03, 0xfc, 0x03, 0xfb,
  0x05, 0xfc, 0x05, 0x06, 0xfa, 0x02, 0x01, 0x05, 0xfa, 0xfd, 0x01, 0x02,
  0x05, 0x01, 0x04, 0x05, 0xf9, 0x02, 0x22, 0xce, 0x05, 0x08, 0xff, 0xfd,
  0xfa, 0x19, 0x00, 0xfe, 0x06, 0xfb, 0xfa, 0x07, 0xff, 0xfe, 0xfc, 0xfd,
  0xfe, 0x08, 0x05, 0x04, 0x04, 0x06, 0xff, 0x1c, 0x01, 0x04, 0x03, 0x03,
  0x01, 0x07, 0xfd, 0x07, 0xfd, 0xfc, 0x02, 0xfb, 0xfe, 0xc7, 0xfd, 0xfc,
  0x04, 0xff, 0xfa, 0x03, 0x06, 0xfd, 0x02, 0x08, 0x05, 0xfd, 0x01, 0x01,
  0x05, 0x02, 0x04, 0x05, 0x05, 0x01, 0x04, 0xfd, 0xff, 0x02, 0xf1, 0x05,
  0x12, 0x06, 0x03, 0xfb, 0x00, 0x00, 0xfc, 0x00, 0xfb, 0xf2, 0x03, 0x04,
  0xfc, 0x03, 0xfb, 0xfe, 0x05, 0x05, 0xfa, 0xfd, 0xfe, 0xfc, 0xfe, 0x08,
  0x03, 0x00, 0x07, 0xfb, 0xfe, 0xfb, 0x02, 0x00, 0xfc, 0x07, 0x04, 0xfb,
  0xff, 0xfb, 0x02, 0x05, 0xfb, 0xfa, 0x03, 0x00, 0x02, 0xfc, 0x06, 0xfc,
  0xfc, 0x00, 0x05, 0x02, 0xfa, 0x06, 0xfb, 0x00, 0xff, 0xfd, 0xff, 0xfa,
  0x04, 0xff, 0x03, 0xfd, 0xfe, 0x05, 0xfc, 0xfc, 0x03, 0x04, 0xfc, 0x04,
  0xfd, 0xff, 0x03, 0xff, 0x00, 0x01, 0xfa, 0x01, 0x01, 0xfd, 0x04, 0xfd,
  0xfe, 0x02, 0xfd, 0xfb, 0x02, 0xfb, 0xfd, 0xfe, 0xfb, 0xfe, 0xfe, 0xff,
  0x04, 0x01, 0x00, 0xfd, 0xfd, 0xfc, 0x03, 0x05, 0xfd, 0xfd, 0xfc, 0x02,
  0x05, 0xff, 0xff, 0x05, 0xfd, 0x02, 0xfb, 0x03, 0x01, 0x02, 0xff, 0xfd,
  0x02, 0xfa, 0x06, 0xfb, 0xff, 0xff, 0x01, 0x06, 0xff, 0xff, 0x03, 0x02,
  0xfc, 0xff, 0xfc, 0xfb, 0x03, 0xfa, 0xfb, 0x01, 0x02, 0xfc, 0xfa, 0x05,
  0x03, 0x05, 0x01, 0xfd, 0xfb, 0xfd, 0xfe, 0xfe, 0x05, 0xfd, 0xfb, 0xff,
  0x05, 0x04, 0x02, 0xfa, 0xfc, 0xfe, 0xff, 0xfd, 0xfe, 0x00, 0x05, 0xfe,
  0xfe, 0xfc, 0x01, 0x05, 0x05, 0x05, 0x05, 0x00, 0xfd, 0x04, 0xfa, 0x02,
  0x04, 0x03, 0xfc, 0x01, 0xfe, 0x02, 0x03, 0x04, 0xfe, 0x01, 0x04, 0xfd,
  0xfd, 0x02, 0x06, 0xfa, 0xfc, 0x05, 0xff, 0x05, 0x00, 0xfe, 0xfc, 0x04,
  0x03, 0xff, 0xfb, 0x01, 0xfb, 0xff, 0xf9, 0xff, 0xfc, 0x04, 0xfc, 0x00,
  0xfc, 0x01, 0x02, 0x01, 0xfe, 0x03, 0x06, 0xfc, 0xff, 0xff, 0xfa, 0x01,
  0xfc, 0x05, 0x03, 0xff, 0xff, 0x00, 0x00, 0x00, 0xfc, 0xfb, 0x06, 0xf9,
  0xfe, 0x06, 0xf9, 0x02, 0x06, 0x03, 0xfd, 0xfb, 0x02, 0x03, 0xfb, 0xfc,
  0xfc, 0x03, 0x00, 0x01, 0xf9, 0xfd, 0xfd, 0x00, 0x02, 0x01, 0x05, 0xfe,
  0x00, 0xfe, 0x06, 0xfb, 0x06, 0xfa, 0x03, 0x04, 0xfa, 0xfe, 0xff, 0x02,
  0x06, 0x05, 0x00, 0xfa, 0xfe, 0xff, 0x02, 0xfd, 0xfa, 0xff, 0xfd, 0x03,
  0xfa, 0xfd, 0xfc, 0x06, 0x05, 0xfb, 0x03, 0x01, 0x01, 0x03, 0xfa, 0x02,
  0xfe, 0xfe, 0xfb, 0xff, 0x00, 0x03, 0x02, 0xfa, 0xff, 0x06, 0xfb, 0x04,
  0xfc, 0x03, 0x00, 0xff, 0xf9, 0x01, 0xfe, 0x01, 0x02, 0x01, 0xff, 0x04,
  0x02, 0xff, 0xfa, 0x02, 0x04, 0x03, 0x03, 0xfc, 0xfd, 0xff, 0x05, 0x03,
  0x00, 0xfb, 0xff, 0xff, 0xfa, 0x02, 0xff, 0xfb, 0x01, 0x01, 0xfb, 0x05,
  0xff, 0x03, 0x04, 0x05, 0x05, 0x00, 0xf9, 0xfe, 0xfa, 0x01, 0x02, 0x01,
  0xfc, 0x02, 0x02, 0x01, 0x01, 0x02, 0x07, 0xfb, 0x04, 0x01, 0xfc, 0x06,
  0x01, 0xfe, 0x03, 0x00, 0x02, 0x01, 0xfc, 0x00, 0xfe, 0x00, 0x04, 0xf9,
  0xfb, 0x03, 0x02, 0xfb, 0x00, 0x04, 0x04, 0x03, 0xff, 0x01, 0xfa, 0x01,
  0x01, 0xff, 0xfe, 0xfb, 0x05, 0xfd, 0xfc, 0x06, 0xfd, 0xfe, 0xfe, 0xff,
  0xfd, 0x06, 0xff, 0x02, 0x05, 0x04, 0xfe, 0x00, 0x05, 0x00, 0xfe, 0xff,
  0x02, 0xfc, 0x05, 0xfa, 0xf9, 0xfe, 0xff, 0xfd, 0xfa, 0x05, 0xfc, 0x03,
  0x03, 0x02, 0xfc, 0x02, 0xfa, 0xfe, 0x01, 0x00, 0x00, 0xfc, 0xfd, 0xfc,
  0x06, 0xfa, 0x04, 0xfd, 0x05, 0x01, 0xfb, 0x01, 0xfa, 0x00, 0xfe, 0xfc,
  0x02, 0xf9, 0x00, 0x00, 0x00, 0xfb, 0x05, 0xfc, 0xff, 0xfa, 0x03, 0x04,
  0x01, 0x03, 0xfb, 0x05, 0xfa, 0xff, 0x05, 0xfc, 0x02, 0x02, 0x03, 0xfc,
  0x02, 0xfd, 0xfc, 0x05, 0x04, 0x02, 0xfd, 0xfe, 0x04, 0xfc, 0x04, 0x04,
  0xfe, 0xfb, 0xfe, 0xfa, 0xfb, 0xff, 0xfa, 0xff, 0xfd, 0xfc, 0xfc, 0x06,
  0xfe, 0xfe, 0x02, 0x01, 0x04, 0xfd, 0xfa, 0x00, 0x02, 0x00, 0xf9, 0xfc,
  0x05, 0x01, 0xfb, 0x00, 0xfa, 0x00, 0xff, 0xfe, 0xfd, 0x00, 0x00, 0x04,
  0xf9, 0xfa, 0x05, 0x00, 0x01, 0x03, 0x02, 0xfe, 0xfe, 0x05, 0x01, 0xfc,
  0x03, 0xfc, 0xff, 0xfe, 0x03, 0xf9, 0xfd, 0x00, 0xff, 0x05, 0xfc, 0x06,
  0xfa, 0xfa, 0x02, 0xfb, 0xfe, 0xff, 0x00, 0xfc, 0x06, 0x07, 0x01, 0xfb,
  0x00, 0x02, 0x04, 0x00, 0x01, 0xfe, 0x00, 0xfd, 0xf9, 0xfd, 0x03, 0x01,
  0x01, 0x05, 0xfb, 0xff, 0xfa, 0xff, 0xfd, 0xf9, 0x06, 0xfb, 0xff, 0x04,
  0x05, 0x01, 0x00, 0x01, 0xfb, 0x01, 0xfd, 0x04, 0xff, 0x03, 0x05, 0x01,
  0x02, 0xfc, 0xfc, 0x01, 0xfa, 0xfb, 0xfe, 0x04, 0xfd, 0xfc, 0x03, 0x03,
  0xfe, 0xff, 0xfe, 0xfb, 0x06, 0x05, 0xfc, 0xfe, 0xfa, 0x00, 0x04, 0xfe,
  0x06, 0x06, 0x02, 0xff, 0x00, 0xfd, 0xfb, 0xfa, 0xfc, 0x02, 0x01, 0x03,
  0x01, 0x06, 0xf9, 0x02, 0xfe, 0xff, 0xfa, 0xfd, 0xfc, 0xff, 0xfd, 0x04,
  0xfd, 0x06, 0x05, 0xfd, 0x06, 0x01, 0x04, 0xfd, 0xfc, 0x02, 0xfc, 0xfe,
  0xfe, 0xff, 0xfe, 0x00, 0xfe, 0x05, 0xfb, 0xfc, 0x00, 0x05, 0xfa, 0x01,
  0xf9, 0x00, 0x02, 0x03, 0x05, 0xff, 0x05, 0x00, 0xff, 0x00, 0x06, 0xfa,
  0x04, 0x00, 0x06, 0x03, 0x04, 0x01, 0x05, 0xff, 0xfd, 0x06, 0xfa, 0xfb,
  0x02, 0x06, 0xfd, 0xfb, 0xf7, 0x09, 0x1b, 0x9e, 0x04, 0x01, 0xfc, 0x01,
  0x03, 0x17, 0x01, 0xfb, 0xfd, 0x07, 0x02, 0x00, 0xfe, 0x07, 0xfc, 0xfa,
  0x03, 0x01, 0x04, 0x03, 0x05, 0x00, 0xff, 0x18, 0xfb, 0xfc, 0x05, 0xfc,
  0xfe, 0xfd, 0xfe, 0x02, 0xfd, 0x06, 0x03, 0xfc, 0x00, 0x81, 0xff, 0xfa,
  0xfb, 0x00, 0xff, 0x01, 0xfc, 0x02, 0x04, 0x08, 0xfb, 0xff, 0x08, 0x01,
  0xfd, 0xfd, 0x01, 0xfb, 0x00, 0x05, 0x03, 0xff, 0xfa, 0xfe, 0xf0, 0x06,
  0x0d, 0x08, 0xfd, 0xfe, 0x08, 0x05, 0x04, 0x00, 0x08, 0xf1, 0x06, 0x05,
  0xfc, 0xfb, 0xfc, 0xff, 0x01, 0x06, 0xfc, 0xfa, 0x03, 0xfc, 0x04, 0xfa,
  0xfe, 0x05, 0xff, 0x01, 0xfb, 0xfe, 0xf9, 0xfa, 0xfd, 0x04, 0x03, 0x01,
  0x00, 0x00, 0xfd, 0xfa, 0xff, 0x04, 0xfa, 0x08, 0xfc, 0xfd, 0x02, 0x01,
  0xff, 0x00, 0x03, 0x06, 0x00, 0x00, 0x06, 0xff, 0x03, 0x03, 0x05, 0xfa,
  0xc4, 0x00, 0x02, 0x12, 0xfd, 0xfd, 0x04, 0xe5, 0xfa, 0x02, 0x02, 0x04,
  0xfd, 0xf1, 0x06, 0xfb, 0xfd, 0xf9, 0xfb, 0x03, 0x01, 0xfb, 0xfc, 0xfa,
  0x03, 0xfd, 0xea, 0x07, 0xfc, 0x05, 0xfd, 0x05, 0x04, 0xfc, 0xfe, 0x00,
  0xff, 0x03, 0x03, 0xfd, 0xfc, 0x0e, 0x03, 0x00, 0x04, 0xf9, 0xfc, 0x05,
  0x01, 0xfd, 0x03, 0xfd, 0xfe, 0x06, 0xff, 0xfe, 0x02, 0x01, 0xf8, 0x05,
  0xff, 0xfa, 0xfe, 0x01, 0x01, 0xff, 0x10, 0xfe, 0x05, 0xfb, 0xf9, 0x03,
  0xff, 0x02, 0x03, 0xfb, 0x01, 0x0e, 0xff, 0x00, 0xfd, 0xf9, 0x04, 0xfd,
  0x00, 0xfc, 0xff, 0xf9, 0x05, 0xfa, 0x05, 0xfb, 0x03, 0xfe, 0xfe, 0xf9,
  0x04, 0xfb, 0xff, 0xff, 0x03, 0xfe, 0x04, 0x00, 0x01, 0xff, 0x02, 0x03,
  0xd1, 0xfc, 0xff, 0x03, 0x01, 0x05, 0x06, 0xff, 0x00, 0xfe, 0xfc, 0xff,
  0xfa, 0x00, 0xff, 0xf9, 0xfb, 0x00, 0x03, 0xfd, 0xfc, 0x03, 0x18, 0xc6,
  0x00, 0xfa, 0x04, 0x00, 0x01, 0x1a, 0x06, 0x00, 0x03, 0x05, 0xfc, 0x05,
  0x05, 0xf9, 0x01, 0x07, 0x03, 0x03, 0x03, 0x04, 0xfc, 0x01, 0x00, 0x1a,
  0x03, 0xfe, 0x02, 0x06, 0x04, 0xfd, 0x05, 0x0f, 0x00, 0xfb, 0x02, 0xfa,
  0xfc, 0xcb, 0xfa, 0x04, 0xfe, 0xfd, 0xff, 0x03, 0xfd, 0x02, 0x04, 0xfc,
  0xfd, 0xfb, 0x06, 0xfe, 0x06, 0xff, 0x01, 0x03, 0xfb, 0x02, 0xfa, 0xfb,
  0xfb, 0x05, 0xef, 0x01, 0x09, 0x07, 0x07, 0x05, 0x02, 0x04, 0xfc, 0x06,
  0x06, 0xee, 0xff, 0x03, 0x05, 0x02, 0xfd, 0x03, 0xfe, 0x05, 0x05, 0xf8,
  0xfd, 0x04, 0x05, 0x01, 0xfa, 0xff, 0x06, 0x04, 0x02, 0xfb, 0xfc, 0x06,
  0x01, 0x06, 0x00, 0x00, 0x01, 0xfe, 0x07, 0xfa, 0xf4, 0x05, 0x04, 0x04,
  0x06, 0x01, 0xfb, 0x01, 0xff, 0xff, 0xfa, 0x05, 0xfa, 0xfb, 0x06, 0x07,
  0xff, 0xfe, 0x02, 0x06, 0x05, 0xfb, 0xfb, 0xfe, 0x04, 0x03, 0xfe, 0x04,
  0xff, 0xfd, 0x05, 0x05, 0x04, 0xfe, 0x04, 0xfb, 0xfb, 0xfa, 0xfa, 0xfe,
  0xfe, 0xfc, 0xfd, 0x04, 0x06, 0x04, 0x00, 0x03, 0xfc, 0x03, 0xfe, 0xfd,
  0x04, 0xff, 0xff, 0xfa, 0xfc, 0x06, 0xfe, 0x00, 0x01, 0x06, 0xff, 0xfc,
  0xfe, 0x02, 0x01, 0xfa, 0x03, 0x06, 0xfe, 0xfc, 0x01, 0x00, 0xfc, 0x05,
  0x05, 0xff, 0x03, 0x06, 0xfa, 0xfa, 0x02, 0x01, 0xfd, 0xfd, 0x03, 0x05,
  0x02, 0xff, 0xfa, 0xfc, 0x02, 0xfc, 0xfb, 0x01, 0xfc, 0x04, 0x03, 0xfd,
  0x04, 0x01, 0x04, 0xfc, 0x04, 0x01, 0x06, 0xfd, 0xfa, 0xfa, 0x06, 0xff,
  0xff, 0x06, 0x00, 0x05, 0x04, 0xfb, 0x02, 0x02, 0xfa, 0xfc, 0xff, 0xfe,
  0x05, 0xfb, 0x01, 0x07, 0xfd, 0x04, 0xff, 0x06, 0x03, 0x01, 0x00, 0xfe,
  0x04, 0x03, 0x05, 0x00, 0x00, 0x03, 0xfd, 0x00, 0xff, 0xfb, 0xfa, 0x00,
  0xfb, 0x01, 0x1c, 0xc6, 0xff, 0x03, 0x07, 0x01, 0xfb, 0x1a, 0xfd, 0xff,
  0x01, 0x04, 0xff, 0xff, 0x01, 0x03, 0xfc, 0xff, 0x00, 0x03, 0x03, 0x02,
  0x06, 0xfe, 0xf9, 0x21, 0xff, 0x06, 0x04, 0x03, 0x06, 0x00, 0x01, 0x10,
  0x07, 0xfd, 0x05, 0x06, 0xfa, 0xc3, 0x05, 0xfc, 0x02, 0x01, 0xfc, 0x02,
  0x00, 0xfb, 0x02, 0x03, 0xfe, 0x02, 0xfe, 0xf9, 0x05, 0xfb, 0x01, 0xfb,
  0xfd, 0x01, 0xfc, 0xfe, 0x03, 0x04, 0xed, 0xfd, 0x0e, 0x07, 0x08, 0xfa,
  0x01, 0x08, 0x06, 0x06, 0x06, 0xf5, 0xfc, 0xfc, 0x06, 0x02, 0xfb, 0x04,
  0x05, 0x01, 0x00, 0x00, 0xfa, 0x06, 0x00, 0xff, 0xfc, 0xfb, 0x01, 0x00,
  0xfe, 0xfc, 0xff, 0x02, 0x01, 0xfd, 0x08, 0x01, 0x00, 0xfd, 0x00, 0xfb,
  0xfa, 0x05, 0xff, 0x06, 0xfe, 0x06, 0x04, 0x03, 0xfb, 0xfd, 0xfa, 0x06,
  0x03, 0x00, 0xfd, 0x07, 0x03, 0xfd, 0xfc, 0x00, 0x01, 0xfe, 0x02, 0xfc,
  0xfa, 0xfe, 0x06, 0xfb, 0xfb, 0xfd, 0xfa, 0x03, 0xff, 0x06, 0x03, 0xfe,
  0x04, 0x02, 0xfc, 0x02, 0xff, 0x05, 0x03, 0xfc, 0xfe, 0xfd, 0xfa, 0xfd,
  0xfc, 0x01, 0x05, 0xff, 0x02, 0x06, 0x00, 0xff, 0xff, 0xff, 0x02, 0xf9,
  0xfe, 0x04, 0xfd, 0xfc, 0x00, 0x05, 0x04, 0xfc, 0x02, 0x05, 0x07, 0xfb,
  0xfe, 0x01, 0xfc, 0xfb, 0x04, 0x00, 0x05, 0x04, 0xfc, 0x03, 0xff, 0x06,
  0xfa, 0x05, 0x01, 0xfa, 0xfc, 0xfc, 0x05, 0x06, 0xfb, 0xff, 0xfb, 0xfc,
  0xfa, 0xff, 0xfa, 0xfa, 0x01, 0x06, 0x00, 0x00, 0x03, 0xfb, 0xfd, 0x04,
  0x07, 0xff, 0xff, 0xfc, 0x01, 0x01, 0x05, 0x00, 0x03, 0x01, 0x02, 0xfe,
  0x02, 0xfd, 0x01, 0x07, 0xf9, 0xfb, 0x03, 0x05, 0x02, 0xff, 0x01, 0xff,
  0x04, 0xfb, 0xfd, 0x00, 0x00, 0x05, 0xfd, 0xf9, 0xfe, 0x06, 0xfc, 0xfe,
  0xff, 0x02, 0x04, 0x00, 0xf4, 0x03, 0x1d, 0xcf, 0x01, 0x00, 0x01, 0xfd,
  0x02, 0x20, 0x02, 0x06, 0x06, 0xfe, 0x06, 0x02, 0xff, 0x05, 0x02, 0xff,
  0xfb, 0x01, 0xfd, 0x03, 0x00, 0xfa, 0x03, 0x1a, 0x01, 0x02, 0x00, 0x02,
  0xfd, 0x05, 0xff, 0x05, 0xfa, 0x01, 0x05, 0xfa, 0x01, 0xcc, 0xff, 0xfd,
  0xfb, 0x04, 0xfa, 0xff, 0x04, 0x06, 0xfd, 0xfb, 0x01, 0x03, 0xfa, 0x02,
  0x00, 0xfa, 0xfc, 0xfe, 0x06, 0x04, 0xff, 0x04, 0xfb, 0xfe, 0xca, 0xff,
  0x0a, 0xfb, 0x07, 0xfa, 0x07, 0x03, 0x00, 0xfc, 0xfc, 0xcf, 0x04, 0x04,
  0x06, 0x00, 0xfd, 0xfd, 0x06, 0x00, 0x01, 0xfb, 0xfa, 0xfb, 0x01, 0x03,
  0x00, 0x05, 0x01, 0x02, 0xfd, 0xfd, 0xfb, 0xfe, 0x03, 0xfc, 0x0c, 0x06,
  0x06, 0xc8, 0xfa, 0x01, 0xf2, 0xfd, 0x03, 0xfd, 0xfb, 0x00, 0xfd, 0xfa,
  0x00, 0x05, 0x06, 0xfa, 0xff, 0x02, 0x04, 0x00, 0x05, 0x02, 0xfe, 0x06,
  0x03, 0x04, 0xf9, 0x01, 0x02, 0xfb, 0xf9, 0x05, 0xfd, 0x04, 0xfe, 0x04,
  0x03, 0x03, 0xfb, 0x02, 0x05, 0xf8, 0x00, 0xfa, 0xfb, 0xfc, 0xfb, 0x00,
  0xfa, 0xff, 0xfb, 0xf9, 0x04, 0xfb, 0x06, 0xfc, 0xfe, 0x01, 0xfd, 0x04,
  0x03, 0xfd, 0x01, 0xfa, 0xfd, 0x01, 0x05, 0x03, 0x01, 0xfe, 0xfb, 0x04,
  0x04, 0x00, 0x03, 0xfc, 0x02, 0xfd, 0xfe, 0xff, 0x00, 0x00, 0xfc, 0xfc,
  0x02, 0x01, 0xfd, 0x03, 0xfb, 0xfa, 0xfb, 0xfc, 0x03, 0xfd, 0x01, 0xfe,
  0x00, 0x05, 0xfb, 0xfc, 0xfc, 0x03, 0xfc, 0xfd, 0x02, 0xfa, 0x02, 0xfe,
  0xf9, 0xfb, 0xfb, 0xfd, 0xfc, 0x03, 0xf9, 0x06, 0x05, 0x04, 0xfc, 0xfd,
  0xff, 0x02, 0x04, 0x03, 0xfd, 0xfa, 0xfb, 0x05, 0x01, 0xfa, 0x01, 0x06,
  0x00, 0xfe, 0xfc, 0xfd, 0xff, 0x05, 0xfd, 0xfb, 0xfc, 0xfb, 0xfc, 0xfb,
  0xfa, 0x01, 0x06, 0xfd, 0x05, 0xfb, 0xfe, 0x04, 0xff, 0xff, 0xff, 0x00,
  0xfe, 0xfd, 0xfe, 0x02, 0xff, 0xfe, 0x03, 0xfb, 0x01, 0x06, 0xfb, 0x05,
  0xfd, 0x03, 0xfa, 0xfc, 0x00, 0xfe, 0x01, 0x05, 0x01, 0x02, 0xf9, 0xfc,
  0xfa, 0xfa, 0xfc, 0x07, 0xfe, 0x02, 0xfa, 0xfb, 0x00, 0x02, 0x01, 0x03,
  0x01, 0xff, 0xfb, 0xfa, 0x01, 0x03, 0x03, 0xfd, 0x00, 0x04, 0xfd, 0xfc,
  0xfd, 0xff, 0x06, 0x05, 0x01, 0xfc, 0xff, 0x04, 0x00, 0x06, 0x01, 0x03,
  0x03, 0xfb, 0xf9, 0xfa, 0xf9, 0xfd, 0xfa, 0xff, 0xff, 0xfe, 0xfb, 0xfe,
  0xfb, 0xfc, 0x02, 0xfc, 0x01, 0x04, 0x00, 0xfc, 0xff, 0x03, 0xfb, 0xff,
  0xfb, 0xfc, 0x06, 0x00, 0xff, 0xfb, 0xfc, 0xfc, 0x04, 0x05, 0x03, 0xfa,
  0x03, 0x01, 0xfb, 0xff, 0x04, 0xfa, 0x00, 0xfc, 0xff, 0x06, 0x05, 0xfe,
  0x03, 0xff, 0xfe, 0xfa, 0x06, 0x01, 0xfa, 0x05, 0xf9, 0x04, 0xfc, 0xfe,
  0xfb, 0x04, 0xfc, 0xfb, 0x02, 0x05, 0xfc, 0xfd, 0x01, 0xfb, 0xfa, 0xff,
  0xfb, 0xf8, 0xfa, 0x05, 0x05, 0x00, 0x04, 0x03, 0x06, 0x05, 0x04, 0x00,
  0xff, 0xf9, 0x02, 0xf9, 0xfc, 0xfa, 0x01, 0x04, 0xfb, 0xfd, 0xfc, 0x02,
  0x04, 0xf9, 0x02, 0xfb, 0xfb, 0x06, 0xff, 0x06, 0x05, 0x01, 0xfb, 0x02,
  0x01, 0xfa, 0xff, 0x04, 0x06, 0xff, 0x02, 0x04, 0x04, 0xff, 0xfd, 0x00,
  0x04, 0x06, 0x02, 0x02, 0xf9, 0xfd, 0xfb, 0x01, 0x04, 0x07, 0x04, 0xf9,
  0xfd, 0xfb, 0xff, 0xfb, 0xff, 0xfc, 0x00, 0xfd, 0x01, 0xfc, 0xfb, 0x05,
  0x06, 0x06, 0x00, 0x03, 0xfa, 0x04, 0x05, 0xfa, 0xfd, 0x00, 0xff, 0xfb,
  0xff, 0x01, 0x04, 0xfc, 0x01, 0xff, 0xfe, 0x00, 0xfd, 0xfa, 0xfb, 0xfc,
  0xfa, 0xfd, 0x02, 0xff, 0x00, 0xfc, 0xff, 0xfa, 0x02, 0x03, 0xff, 0x01,
  0xfc, 0x03, 0x02, 0xfa, 0xfa, 0xfa, 0xfc, 0xfd, 0xfa, 0xfb, 0x02, 0xfc,
  0xf7, 0x03, 0x26, 0xbd, 0xfb, 0x06, 0xfc, 0xf8, 0xff, 0x1f, 0xfe, 0x04,
  0x03, 0xfb, 0xff, 0x05, 0xfc, 0x01, 0x03, 0xfb, 0xfd, 0x00, 0x00, 0xfc,
  0x04, 0x02, 0xf9, 0x24, 0xfa, 0xff, 0xff, 0xfc, 0xfc, 0x06, 0xfa, 0x0d,
  0x01, 0x04, 0x03, 0xff, 0x05, 0xb2, 0x01, 0xfb, 0x05, 0xfb, 0x06, 0x00,
  0xfb, 0x01, 0x05, 0x04, 0xff, 0x05, 0xfe, 0x05, 0x03, 0x01, 0x05, 0xfd,
  0xff, 0x05, 0x00, 0xfe, 0x03, 0xfc, 0xc8, 0xfe, 0x15, 0x02, 0x05, 0x06,
  0x05, 0x05, 0x02, 0x00, 0xfb, 0xd4, 0xfe, 0x00, 0xfe, 0xf9, 0xfd, 0x06,
  0x02, 0xf9, 0x06, 0xfb, 0x06, 0x04, 0x03, 0x01, 0xff, 0x06, 0x02, 0xfd,
  0x02, 0xfd, 0xfa, 0xfc, 0xfc, 0xfb, 0x0a, 0x06, 0xfb, 0xd9, 0xfb, 0xfc,
  0xf4, 0xfd, 0x00, 0x08, 0xfe, 0x00, 0x06, 0x03, 0xfe, 0xfa, 0x02, 0xfe,
  0xfd, 0xfe, 0x06, 0x06, 0x04, 0x01, 0xff, 0x06, 0x03, 0xfa, 0x05, 0xfc,
  0xf9, 0x03, 0xfe, 0x04, 0x00, 0xf9, 0xff, 0xfc, 0x00, 0xfd, 0xfc, 0xff,
  0x01, 0xfd, 0xfc, 0x04, 0x00, 0xff, 0xfb, 0xfc, 0x00, 0x00, 0xff, 0x00,
  0x05, 0x06, 0x04, 0xfe, 0xff, 0xfb, 0x02, 0x04, 0xfd, 0x04, 0xf9, 0xfb,
  0x07, 0x00, 0x05, 0x04, 0xff, 0x01, 0x02, 0x04, 0x04, 0xff, 0x05, 0x02,
  0xfc, 0xfb, 0xf8, 0x02, 0xfd, 0xfd, 0x01, 0xfe, 0xfc, 0xfe, 0x04, 0xfb,
  0x05, 0x05, 0xfd, 0xfb, 0xfc, 0x00, 0x00, 0x01, 0xf9, 0x02, 0x02, 0xff,
  0xfc, 0xfb, 0x04, 0x03, 0xfa, 0x03, 0xfe, 0x01, 0x00, 0xfe, 0x00, 0x05,
  0x05, 0xff, 0x04, 0xfe, 0xff, 0xfa, 0x03, 0xfe, 0xfe, 0xfd, 0x02, 0xfe,
  0xff, 0xf9, 0xfd, 0xfe, 0x03, 0xfc, 0xfb, 0x06, 0xfd, 0xfa, 0x05, 0x01,
  0xfd, 0xfb, 0xfc, 0xfa, 0x04, 0xfb, 0x00, 0x05, 0x02, 0xfd, 0xfa, 0x00,
  0x03, 0xfc, 0x03, 0x02, 0xf9, 0x06, 0x1a, 0xc1, 0x04, 0xfe, 0x04, 0xf9,
  0xfa, 0x1a, 0x08, 0x04, 0x01, 0xfc, 0x04, 0x03, 0xfe, 0xfb, 0x02, 0x02,
  0x01, 0x02, 0x05, 0xfb, 0x04, 0xfa, 0x01, 0x20, 0x06, 0x05, 0xfe, 0x05,
  0xfb, 0x08, 0x00, 0x04, 0xfc, 0xfb, 0x02, 0xfe, 0x01, 0xbc, 0x04, 0x00,
  0x05, 0xfc, 0x05, 0x04, 0xfe, 0x06, 0x01, 0x05, 0x06, 0x02, 0x00, 0x02,
  0x06, 0xfd, 0x07, 0xfe, 0xfd, 0x04, 0x04, 0x03, 0x04, 0xfe, 0xf2, 0x08,
  0x0a, 0xfd, 0x06, 0x00, 0x06, 0xfe, 0xfa, 0x03, 0xfb, 0xee, 0xfb, 0x00,
  0x03, 0x06, 0x05, 0x06, 0x05, 0x05, 0x04, 0xfb, 0x04, 0xfd, 0xf9, 0x05,
  0xfb, 0xfb, 0x07, 0xfc, 0x06, 0x04, 0x01, 0xfc, 0xfc, 0xfb, 0x08, 0xff,
  0xfc, 0xfa, 0x06, 0x05, 0x00, 0xfd, 0xfb, 0x06, 0x03, 0xfa, 0xff, 0xfe,
  0xff, 0xff, 0x04, 0x04, 0x04, 0x00, 0xfa, 0xff, 0x04, 0x07, 0x04, 0xfb,
  0xfa, 0x03, 0x04, 0x02, 0xfb, 0xfc, 0xfe, 0x02, 0xfb, 0x01, 0xfa, 0x04,
  0xfa, 0xfa, 0xfe, 0xfd, 0xfc, 0xfa, 0x07, 0x04, 0x01, 0x04, 0x00, 0xfd,
  0xfb, 0xfa, 0x01, 0xfd, 0x04, 0xff, 0x03, 0xfc, 0x00, 0xfb, 0xfe, 0x05,
  0x06, 0x06, 0x01, 0x01, 0x00, 0x05, 0xfd, 0xfd, 0xfd, 0xff, 0x02, 0x00,
  0xfe, 0xfc, 0xfa, 0xfa, 0xf9, 0xff, 0xfc, 0xfd, 0x05, 0x05, 0xfa, 0x05,
  0x05, 0xf8, 0x04, 0x02, 0x02, 0x03, 0x01, 0xff, 0xfc, 0x00, 0x02, 0x03,
  0xf9, 0x00, 0xff, 0x00, 0xfa, 0x05, 0xff, 0xfd, 0xfe, 0x02, 0x05, 0x02,
  0xfc, 0x04, 0x05, 0x02, 0x05, 0xff, 0x06, 0xfa, 0x00, 0x02, 0xfd, 0x02,
  0xfe, 0x05, 0xff, 0xff, 0x00, 0x02, 0x01, 0x02, 0x03, 0xfe, 0xfd, 0x02,
  0xfc, 0xfb, 0xfc, 0x02, 0xff, 0x06, 0x02, 0xfe, 0x02, 0xfc, 0x02, 0x04,
  0x02, 0x01, 0x02, 0x00, 0x04, 0xff, 0x04, 0xfc, 0xfa, 0x0a, 0x30, 0xb2,
  0x06, 0x06, 0x05, 0x05, 0xfd, 0x24, 0x08, 0x01, 0x09, 0x02, 0x05, 0x01,
  0x07, 0xff, 0x06, 0x03, 0x09, 0x08, 0x02, 0x05, 0x02, 0x04, 0x04, 0x2e,
  0xfb, 0xff, 0x01, 0xfa, 0x06, 0xff, 0x01, 0x13, 0xfb, 0x07, 0xff, 0x00,
  0xfc, 0xa2, 0x06, 0x05, 0x02, 0x00, 0xfd, 0x03, 0x04, 0x00, 0x03, 0xff,
  0x02, 0x02, 0x08, 0x03, 0x04, 0x03, 0xff, 0x02, 0x01, 0x05, 0x04, 0x00,
  0x02, 0x03, 0xfc, 0x04, 0x14, 0x00, 0x0a, 0x06, 0x06, 0x0a, 0x05, 0x03,
  0x01, 0x05, 0x05, 0x01, 0x01, 0xfb, 0x07, 0xfa, 0x06, 0x01, 0xfb, 0xfc,
  0xfd, 0xfb, 0xff, 0x05, 0x02, 0x03, 0x04, 0x07, 0x02, 0xfe, 0xfe, 0xff,
  0x04, 0x00, 0xff, 0xfb, 0x02, 0xfc, 0x01, 0x06, 0xf5, 0xfb, 0xfe, 0x05,
  0x04, 0xfe, 0x04, 0xfd, 0x06, 0xfe, 0x05, 0x02, 0x06, 0xfb, 0xfd, 0x06,
  0x04, 0x03, 0x05, 0x01, 0x04, 0x03, 0x02, 0x02, 0xfc, 0x04, 0x01, 0xfc,
  0xfc, 0xff, 0x04, 0xfa, 0x00, 0xfe, 0x05, 0xff, 0x00, 0x03, 0x02, 0xfd,
  0x00, 0xfc, 0x01, 0xfd, 0xfc, 0x04, 0x02, 0xfe, 0x05, 0xfb, 0x04, 0xfb,
  0x00, 0x05, 0xfd, 0x01, 0xfd, 0xfc, 0xfc, 0x01, 0xfd, 0xfc, 0x04, 0x01,
  0xfe, 0xfb, 0x00, 0xff, 0x02, 0xfd, 0xff, 0x02, 0x01, 0x03, 0x02, 0xfb,
  0xfd, 0xfe, 0xfa, 0x01, 0x02, 0xfa, 0x03, 0x01, 0x02, 0x02, 0xfb, 0xfc,
  0x04, 0xfd, 0x05, 0x01, 0xfd, 0xfd, 0x07, 0xfb, 0xfe, 0x00, 0xff, 0x01,
  0xfd, 0xfd, 0x03, 0x03, 0x04, 0x02, 0xfe, 0xff, 0x05, 0x00, 0x05, 0x05,
  0xfd, 0x02, 0xfa, 0x05, 0x01, 0xfa, 0xfe, 0x02, 0xfe, 0x02, 0xfc, 0x06,
  0x04, 0x01, 0x06, 0xfb, 0xfb, 0x03, 0xfe, 0xfc, 0xfd, 0x00, 0x00, 0x00,
  0xfe, 0x01, 0x06, 0x05, 0x06, 0x06, 0x06, 0xfe, 0x00, 0xff, 0xfa, 0x06,
  0xfc, 0xfc, 0x04, 0x00, 0xfe, 0x02, 0x05, 0xfc, 0xfd, 0xff, 0x01, 0xfc,
  0xfe, 0x04, 0x04, 0x04, 0xfb, 0x01, 0xfc, 0xfa, 0x06, 0xfe, 0xfe, 0xfe,
  0xfa, 0x04, 0x05, 0xfa, 0x04, 0x03, 0xfe, 0x01, 0xfc, 0x00, 0xfa, 0xfa,
  0xfb, 0x00, 0xfe, 0xfb, 0xfd, 0xfa, 0x05, 0xfc, 0x03, 0x05, 0x02, 0x01,
  0xfd, 0xfd, 0x05, 0xfb, 0x01, 0x01, 0xfd, 0x02, 0x00, 0xfb, 0x03, 0x05,
  0xfa, 0x03, 0x01, 0xfb, 0x04, 0xfe, 0x05, 0xfc, 0x07, 0x04, 0xfa, 0x01,
  0x00, 0x06, 0x01, 0xfb, 0x05, 0x05, 0x01, 0x04, 0xff, 0xfc, 0x04, 0x00,
  0x00, 0x06, 0x05, 0xfe, 0x02, 0xfe, 0x04, 0xfd, 0xff, 0x05, 0xfb, 0x02,
  0xfb, 0xff, 0xfb, 0x01, 0x06, 0x05, 0xfd, 0xff, 0xfb, 0x04, 0xfc, 0x02,
  0x04, 0x01, 0xff, 0x02, 0xfe, 0xff, 0xfc, 0xfb, 0xfa, 0x02, 0x01, 0xfd,
  0x04, 0xfd, 0xfd, 0xfd, 0x04, 0x06, 0xfa, 0xfd, 0x05, 0xff, 0xff, 0xff,
  0x03, 0x03, 0x00, 0xfb, 0x04, 0x02, 0x00, 0xf9, 0xfa, 0x06, 0x00, 0xfd,
  0x04, 0x01, 0x02, 0xfb, 0xfa, 0x04, 0xfc, 0xfe, 0xfd, 0x06, 0xff, 0x06,
  0xfd, 0xfa, 0xfe, 0xfb, 0x02, 0xfc, 0x06, 0xfa, 0xfb, 0x01, 0x01, 0x02,
  0xff, 0xfb, 0x06, 0x03, 0xfa, 0xfc, 0x03, 0xfc, 0xff, 0xfc, 0xfe, 0x06,
  0xfd, 0xfc, 0xfa, 0xff, 0xfa, 0x04, 0x05, 0xfe, 0xfa, 0xfb, 0xfe, 0x03,
  0x05, 0xff, 0x05, 0xfd, 0x05, 0x01, 0xfe, 0x03, 0x02, 0xfe, 0xfb, 0x01,
  0xff, 0x05, 0xfb, 0x00, 0x01, 0x01, 0x01, 0x00, 0x04, 0x03, 0xfa, 0x06,
  0xfb, 0x03, 0x03, 0xfa, 0xfa, 0x03, 0xfe, 0xfd, 0x02, 0x06, 0x06, 0x05,
  0xfc, 0xff, 0xfb, 0x02, 0x01, 0xfd, 0xfd, 0xff, 0x03, 0xfe, 0xfa, 0xfe,
  0x05, 0xfb, 0x02, 0x03, 0x06, 0x04, 0xfe, 0xfe, 0xfc, 0xfb, 0x04, 0x03,
  0x06, 0x01, 0x05, 0x05, 0xfc, 0xfe, 0x02, 0xfe, 0xfd, 0xfc, 0x05, 0xff,
  0x06, 0xfe, 0xff, 0xff, 0x02, 0x00, 0x02, 0xfe, 0x03, 0xff, 0x04, 0xfb,
  0xfa, 0x03, 0xfd, 0x05, 0x06, 0xfb, 0x03, 0x06, 0x00, 0x04, 0x03, 0x04,
  0x04, 0xff, 0xfc, 0x03, 0x02, 0x01, 0xfa, 0xfb, 0xfb, 0xfa, 0x00, 0xfb,
  0xfd, 0xfa, 0x06, 0x06, 0xfc, 0x02, 0xfd, 0xff, 0x05, 0x06, 0x03, 0x04,
  0x03, 0xff, 0x04, 0xfe, 0xff, 0xfa, 0xfa, 0x01, 0x03, 0x00, 0xfa, 0x05,
  0x02, 0xfd, 0xfb, 0xfd, 0xfe, 0xfb, 0x04, 0xfc, 0x01, 0x03, 0x00, 0x04,
  0x03, 0x02, 0x06, 0xfc, 0x01, 0xfe, 0x06, 0x01, 0xfc, 0x02, 0xfa, 0xfc,
  0x03, 0x02, 0xf9, 0x05, 0xfc, 0x06, 0xfb, 0xfb, 0x05, 0x05, 0x05, 0xfc,
  0x06, 0x04, 0xfa, 0x05, 0xfb, 0xf9, 0x04, 0xfb, 0xff, 0x01, 0x06, 0x02,
  0x04, 0x01, 0xfe, 0xfb, 0xfb, 0x04, 0x04, 0x01, 0x04, 0x00, 0xff, 0xfd,
  0xff, 0x01, 0x04, 0x02, 0xfa, 0x00, 0x05, 0xfe, 0x00, 0x03, 0x00, 0x00,
  0xf9, 0xfa, 0xfe, 0xfc, 0xfe, 0xf8, 0xff, 0x00, 0xff, 0x02, 0xfa, 0x01,
  0x04, 0xfa, 0x01, 0xf9, 0x02, 0x03, 0xfa, 0x04, 0x06, 0x02, 0xfc, 0xfd,
  0x03, 0x02, 0x00, 0x06, 0x06, 0xfe, 0x05, 0xff, 0x05, 0xfd, 0xfc, 0xfa,
  0x02, 0xfa, 0x03, 0xfd, 0x01, 0xfe, 0xfd, 0x04, 0x03, 0x05, 0xfa, 0x04,
  0xff, 0x03, 0x02, 0x06, 0xfe, 0x00, 0xfc, 0x04, 0xfe, 0xfb, 0x03, 0xfb,
  0x04, 0xf9, 0xfa, 0x06, 0x00, 0xfb, 0x05, 0xf8, 0xfc, 0xfc, 0x04, 0x00,
  0xfa, 0xff, 0xfc, 0x04, 0xfb, 0x03, 0x00, 0xfa, 0x03, 0x02, 0xfc, 0xfb,
  0xfd, 0x02, 0x01, 0xfd, 0x01, 0xf9, 0xfc, 0x00, 0x00, 0xfd, 0xfb, 0x05,
  0x03, 0x06, 0xfe, 0x03, 0xfd, 0x00, 0xfa, 0x02, 0x01, 0x03, 0xf8, 0xfe,
  0x00, 0x04, 0x06, 0xf8, 0xfe, 0x02, 0xfb, 0x06, 0x02, 0x04, 0x00, 0xff,
  0xfb, 0x03, 0xfe, 0x00, 0xfd, 0xfe, 0x06, 0xfb, 0xfd, 0xfc, 0xfc, 0x03,
  0x04, 0x03, 0xff, 0xfa, 0x04, 0x05, 0x00, 0x04, 0xfa, 0x04, 0xfb, 0x05,
  0x01, 0xfb, 0xfd, 0x02, 0x02, 0xfa, 0x04, 0x00, 0xfe, 0x06, 0x02, 0x02,
  0x05, 0xfa, 0xfb, 0x01, 0xfd, 0xfb, 0x04, 0x02, 0x01, 0x04, 0x00, 0xfb,
  0xfd, 0xfa, 0xfa, 0x01, 0x06, 0x02, 0xfa, 0x04, 0x00, 0xfd, 0xfb, 0xfe,
  0x06, 0x01, 0x01, 0xfc, 0xfa, 0x01, 0x01, 0x04, 0xfa, 0xfd, 0xfa, 0xfb,
  0x05, 0xfb, 0xfa, 0x01, 0x00, 0xfd, 0xfb, 0xfe, 0xfe, 0x05, 0x05, 0xfe,
  0x06, 0x00, 0xfd, 0xff, 0x05, 0xfe, 0x02, 0xfd, 0x04, 0xfd, 0xfb, 0x05,
  0x01, 0x02, 0xf9, 0xfa, 0x05, 0xff, 0xfc, 0x04, 0x02, 0x05, 0xfc, 0xfb,
  0xff, 0xff, 0x03, 0x03, 0x05, 0xfd, 0xff, 0x00, 0xfc, 0x06, 0xff, 0xfb,
  0x06, 0xfc, 0xff, 0x02, 0x00, 0xfc, 0xfe, 0xfa, 0xfb, 0x02, 0xfa, 0xfa,
  0x04, 0xff, 0x01, 0x04, 0xfc, 0x03, 0x00, 0xfc, 0xfa, 0xfe, 0xfc, 0x04,
  0x02, 0x04, 0xfe, 0x00, 0x03, 0x00, 0x06, 0xfa, 0xfc, 0xfe, 0x00, 0xfc,
  0x04, 0x03, 0x06, 0x01, 0x04, 0xfa, 0xfa, 0xfa, 0xff, 0x02, 0x06, 0x00,
  0x00, 0xfa, 0x02, 0x00, 0xfa, 0xfa, 0x03, 0x02, 0xfe, 0xfe, 0xff, 0xfa,
  0xfc, 0xfd, 0xfd, 0xfe, 0xfb, 0xfc, 0x05, 0x06, 0x01, 0x00, 0xfa, 0xfa,
  0x03, 0x00, 0x00, 0xff, 0x06, 0x01, 0x00, 0xfe, 0x03, 0x05, 0x00, 0x01,
  0xfa, 0xfd, 0xff, 0x01, 0xff, 0xfb, 0xfb, 0x06, 0xff, 0x01, 0x01, 0xfa,
  0xfb, 0xfc, 0x02, 0xfd, 0xfe, 0xfe, 0xfa, 0x04, 0x01, 0xfe, 0xf9, 0x01,
  0x03, 0x04, 0xfc, 0x04, 0x05, 0x06, 0xfb, 0xfb, 0xfb, 0x04, 0xff, 0x00,
  0xfd, 0x00, 0xfc, 0x05, 0x06, 0x01, 0x02, 0x01, 0xfb, 0x02, 0x00, 0xfe,
  0x0c, 0xfc, 0xde, 0x39, 0xfc, 0x00, 0x04, 0x0e, 0x04, 0xe0, 0x02, 0x03,
  0xfb, 0x01, 0x03, 0xfd, 0x07, 0x07, 0x05, 0xfc, 0x05, 0x07, 0x04, 0x05,
  0x01, 0xff, 0x06, 0xe2, 0x02, 0xff, 0xff, 0xff, 0x02, 0x01, 0x02, 0xf2,
  0x04, 0x01, 0x00, 0xff, 0xf9, 0x3b, 0x02, 0xfe, 0x02, 0xfc, 0x03, 0x01,
  0xfe, 0x06, 0x02, 0x06, 0x02, 0xfc, 0x04, 0xfd, 0x06, 0xff, 0x00, 0x01,
  0x06, 0xfb, 0x06, 0xfa, 0xfa, 0xfc, 0x09, 0x06, 0xec, 0x00, 0x05, 0xfe,
  0x04, 0xfe, 0x02, 0x05, 0x07, 0x11, 0xfc, 0xfb, 0xfa, 0x06, 0x00, 0xfc,
  0x00, 0x03, 0x06, 0xfc, 0xfe, 0xfd, 0x05, 0xf9, 0x03, 0xf9, 0xfc, 0x00,
  0xfd, 0x02, 0x04, 0x01, 0x02, 0xfb, 0xfb, 0x01, 0xfc, 0xf7, 0xfc, 0x01,
  0x0e, 0x00, 0x05, 0xfe, 0xfa, 0xfc, 0xfb, 0xfa, 0x02, 0x02, 0xfd, 0x04,
  0xff, 0x09, 0x04, 0x09, 0x03, 0x02, 0x06, 0xfb, 0xfb, 0x02, 0xfc, 0x03,
  0x05, 0x03, 0x00, 0x05, 0x02, 0x03, 0xfd, 0xfe, 0xfe, 0xfb, 0xfd, 0xfb,
  0x01, 0xfb, 0xff, 0xff, 0xfa, 0x04, 0x00, 0x01, 0xfd, 0x05, 0xfa, 0x00,
  0xfa, 0x00, 0x01, 0x04, 0x00, 0xfa, 0xfd, 0x01, 0x03, 0x01, 0xfc, 0x03,
  0x05, 0x00, 0x00, 0x00, 0xff, 0x02, 0xfb, 0xfe, 0x05, 0x00, 0xff, 0xfa,
  0x06, 0xfb, 0x01, 0x03, 0xff, 0xff, 0x03, 0x05, 0x01, 0x06, 0xfa, 0x06,
  0xfb, 0xfc, 0xff, 0xfe, 0xfc, 0x02, 0xfe, 0x01, 0xff, 0x06, 0xfe, 0xfa,
  0x03, 0xff, 0x00, 0xfb, 0x00, 0xfb, 0x06, 0xff, 0xfc, 0x01, 0xfc, 0x02,
  0x03, 0xff, 0x00, 0xff, 0xfe, 0xfc, 0xfb, 0x04, 0x02, 0xff, 0x04, 0xfa,
  0x03, 0x01, 0xfd, 0xfb, 0x06, 0xff, 0xfa, 0x04, 0xfc, 0x04, 0x06, 0x01,
  0x05, 0x01, 0x02, 0x00, 0x03, 0x02, 0xfa, 0xfc, 0x03, 0xfe, 0x02, 0x02,
  0xfc, 0x05, 0x03, 0xfd, 0xf8, 0x00, 0x05, 0xf9, 0xfd, 0xff, 0x00, 0xf9,
  0x05, 0x05, 0xfd, 0x00, 0xfe, 0xf9, 0x04, 0x02, 0x04, 0xff, 0xfa, 0xfa,
  0xf8, 0x03, 0xff, 0x05, 0x05, 0x04, 0xfa, 0xf9, 0x00, 0xfb, 0x04, 0x05,
  0x02, 0x04, 0x05, 0x04, 0xfa, 0xfe, 0x01, 0xfb, 0xfe, 0xfd, 0xff, 0x01,
  0x00, 0x05, 0xfc, 0x04, 0xff, 0x01, 0x02, 0xfa, 0xfa, 0xfe, 0xfa, 0xfa,
  0x06, 0xf9, 0xfc, 0xfc, 0xfd, 0xfc, 0x01, 0x00, 0x06, 0x06, 0xfa, 0xfa,
  0xff, 0x03, 0xfc, 0x03, 0x04, 0xf9, 0x02, 0xfa, 0xf8, 0x00, 0x06, 0xfc,
  0x02, 0xfc, 0x05, 0x00, 0x03, 0x06, 0xff, 0x02, 0xfd, 0xfe, 0xfa, 0xff,
  0xfc, 0x00, 0x00, 0x01, 0xfb, 0x03, 0xfa, 0xfc, 0x00, 0xfb, 0x03, 0x04,
  0xfa, 0xfe, 0xff, 0x04, 0xfd, 0x04, 0x04, 0x04, 0xfe, 0x05, 0x00, 0xff,
  0xfc, 0xfd, 0xfe, 0xfe, 0x03, 0xff, 0xfe, 0xfd, 0xfb, 0xf9, 0xfc, 0xf9,
  0xfd, 0xfc, 0x02, 0x04, 0x03, 0xf9, 0xfd, 0xfd, 0xff, 0xfa, 0x05, 0x03,
  0x01, 0x02, 0xfe, 0x02, 0xfc, 0x04, 0xfc, 0x05, 0xfb, 0xf9, 0xfa, 0x05,
  0xfc, 0xfb, 0xfe, 0x01, 0xff, 0xfe, 0x01, 0x02, 0xfc, 0xfd, 0x05, 0x03,
  0x06, 0x00, 0xfe, 0x01, 0xfe, 0xfd, 0xff, 0x02, 0xfa, 0x06, 0x06, 0x03,
  0xfa, 0x05, 0x06, 0x02, 0xff, 0x00, 0xff, 0x00, 0x00, 0xfd, 0xfc, 0x06,
  0xfa, 0xfc, 0x06, 0x02, 0x03, 0x02, 0xfd, 0x00, 0x05, 0xfa, 0x02, 0xfd,
  0xf9, 0xfc, 0xfa, 0x02, 0xfe, 0x01, 0x00, 0xfe, 0x06, 0x05, 0xfe, 0x01,
  0xff, 0xfe, 0xfc, 0xfc, 0xff, 0xfd, 0x03, 0x03, 0xfe, 0xfa, 0xff, 0x04,
  0xfc, 0x05, 0x03, 0xfc, 0xfa, 0xfa, 0xf9, 0x01, 0x05, 0xff, 0xfe, 0xfe,
  0xff, 0x02, 0x03, 0xfc, 0xfc, 0xfc, 0xfa, 0xfa, 0xfb, 0xfe, 0x05, 0x05,
  0xfb, 0xf8, 0x03, 0xfc, 0xff, 0xfe, 0x04, 0xfd, 0xf6, 0x03, 0x28, 0xb7,
  0x01, 0x06, 0x00, 0xf8, 0xfe, 0x26, 0x07, 0xfc, 0x01, 0x04, 0x00, 0x09,
  0x03, 0x04, 0x07, 0x06, 0x01, 0x07, 0xfe, 0x07, 0x03, 0xfa, 0x00, 0x1e,
  0xfc, 0x00, 0xfd, 0xfd, 0x06, 0x07, 0x02, 0x09, 0x05, 0x01, 0xfc, 0xfa,
  0xfc, 0xa9, 0xfe, 0x01, 0x01, 0x02, 0x02, 0x02, 0x00, 0xfe, 0x03, 0x08,
  0x04, 0x00, 0x04, 0x05, 0xff, 0xfb, 0x07, 0x01, 0x03, 0x03, 0xfd, 0x06,
  0x04, 0x06, 0xe6, 0x03, 0x07, 0xfe, 0x06, 0x00, 0x08, 0x02, 0x03, 0x01,
  0x03, 0xe8, 0x01, 0x05, 0xfe, 0x03, 0xff, 0x04, 0xfc, 0x01, 0xfa, 0xfe,
  0x00, 0x05, 0xfd, 0xfc, 0xfd, 0x05, 0x07, 0xff, 0x01, 0x01, 0xfb, 0xff,
  0xfd, 0x08, 0xfc, 0x00, 0x06, 0xfe, 0x01, 0x03, 0xfb, 0x01, 0x06, 0x05,
  0x05, 0x03, 0x02, 0x03, 0x03, 0xfd, 0x05, 0xfd, 0x06, 0xfb, 0x04, 0x03,
  0xfe, 0x02, 0xff, 0xfd, 0xfb, 0xfc, 0xfe, 0x02, 0x00, 0xfa, 0x05, 0x01,
  0x05, 0xfe, 0x03, 0xff, 0x00, 0x05, 0x03, 0x06, 0x04, 0xfa, 0x04, 0x03,
  0x03, 0x04, 0xfa, 0xfd, 0x03, 0xfd, 0xfc, 0xff, 0x06, 0xfe, 0x05, 0xfb,
  0x01, 0xfc, 0x01, 0xfd, 0xfe, 0x03, 0xfd, 0x06, 0x03, 0x06, 0x02, 0xfc,
  0xfe, 0xfa, 0xfe, 0xfc, 0x02, 0xfd, 0xfd, 0xfa, 0x03, 0x01, 0xfd, 0x03,
  0x05, 0x00, 0xfd, 0x02, 0xfc, 0xfc, 0x03, 0xfd, 0xfc, 0x06, 0x05, 0xf9,
  0xff, 0x04, 0x01, 0x02, 0x03, 0x05, 0x02, 0x00, 0x02, 0x08, 0xfe, 0xff,
  0xff, 0xfb, 0x04, 0x02, 0xfc, 0xfb, 0xfe, 0x04, 0x05, 0x01, 0xff, 0xfc,
  0xfe, 0x03, 0x02, 0xfa, 0xfa, 0x02, 0xfd, 0xfb, 0x01, 0x03, 0xfe, 0x01,
  0xfe, 0xfe, 0x04, 0x04, 0xf9, 0x01, 0xfd, 0xf9, 0xfb, 0x00, 0x02, 0xfc,
  0xfe, 0x03, 0xfc, 0x01, 0x02, 0xfb, 0xfa, 0x00, 0xff, 0xfc, 0xff, 0x00,
  0xfd, 0x08, 0x2b, 0xb8, 0x03, 0x09, 0x08, 0x02, 0xfd, 0x24, 0x07, 0xfb,
  0x08, 0x01, 0x01, 0x04, 0xfd, 0xfc, 0xfe, 0x02, 0x00, 0x00, 0x04, 0x09,
  0x09, 0x00, 0xfe, 0x24, 0x05, 0xfd, 0xfa, 0xfd, 0x01, 0x09, 0xf9, 0x11,
  0xfb, 0xfe, 0xff, 0x02, 0x03, 0xa0, 0xfa, 0xff, 0x04, 0x01, 0x04, 0xff,
  0x05, 0x05, 0xfd, 0x08, 0xfc, 0x00, 0x02, 0x06, 0x00, 0xfb, 0x07, 0xfe,
  0xfb, 0xfd, 0xfd, 0xfc, 0x04, 0xff, 0xe7, 0x07, 0x12, 0x09, 0x05, 0x03,
  0x01, 0x09, 0x05, 0x03, 0x02, 0xfb, 0xfb, 0x03, 0x05, 0xff, 0x00, 0xfc,
  0x08, 0xff, 0x01, 0x04, 0x04, 0x00, 0x03, 0x00, 0x00, 0x05, 0x03, 0x00,
  0x02, 0xfe, 0xfa, 0xfc, 0xfe, 0x05, 0x04, 0xff, 0xfe, 0x01, 0x07, 0xfb,
  0x03, 0xfa, 0x06, 0x09, 0xfb, 0xfe, 0x05, 0xff, 0xfe, 0xfd, 0x04, 0x05,
  0x00, 0x05, 0xfd, 0x02, 0x05, 0x03, 0x05, 0x04, 0xff, 0x04, 0x04, 0xfa,
  0xf9, 0x05, 0xfe, 0x06, 0xfd, 0x04, 0xfc, 0xfd, 0x00, 0x05, 0x05, 0x06,
  0xff, 0xff, 0xfa, 0x06, 0xf9, 0x04, 0xfc, 0x04, 0xfa, 0xfb, 0xff, 0xfb,
  0x03, 0x04, 0x04, 0xfb, 0xfb, 0x05, 0x03, 0x05, 0xfa, 0x05, 0x04, 0xfc,
  0x02, 0x02, 0xfe, 0xfe, 0xff, 0xfc, 0xfb, 0x05, 0xff, 0xff, 0xff, 0x03,
  0xfe, 0x04, 0x00, 0x01, 0xfb, 0x02, 0xfc, 0x01, 0x02, 0x03, 0xfb, 0xfd,
  0x01, 0x05, 0x00, 0xf9, 0xfa, 0x03, 0xfd, 0x06, 0xfa, 0x00, 0xfb, 0x01,
  0x00, 0xfe, 0xfb, 0xfc, 0x02, 0xfa, 0x03, 0xfe, 0xfa, 0x03, 0x06, 0x04,
  0x01, 0x05, 0xff, 0xff, 0xfa, 0xfe, 0xfb, 0x03, 0x06, 0x01, 0xff, 0x00,
  0x02, 0x04, 0x03, 0xfa, 0xfb, 0xfd, 0x00, 0xfb, 0xfd, 0x03, 0x03, 0xfa,
  0xfa, 0xfa, 0x05, 0xfc, 0xfd, 0xfc, 0x03, 0xfe, 0x00, 0xfe, 0xfa, 0x01,
  0xff, 0xff, 0xfd, 0x06, 0x02, 0x00, 0xf9, 0x03, 0x04, 0x02, 0x01, 0x03,
  0xfd, 0x03, 0x04, 0xfa, 0xfa, 0xfe, 0x06, 0xfa, 0xf8, 0xfd, 0x02, 0xfa,
  0xfb, 0xfb, 0xfd, 0x05, 0xfc, 0x01, 0x05, 0xf9, 0x05, 0x01, 0x00, 0x06,
  0xfd, 0x01, 0x04, 0xfb, 0x05, 0xfa, 0x00, 0xfb, 0x00, 0xfd, 0x02, 0xfe,
  0xfa, 0x04, 0xfc, 0x06, 0x04, 0xfd, 0x02, 0xff, 0xfc, 0x01, 0x06, 0x06,
  0x02, 0x07, 0xfd, 0xfa, 0x04, 0xfb, 0xfc, 0xfc, 0xfc, 0x02, 0x03, 0xfa,
  0x05, 0xfa, 0xff, 0xff, 0x01, 0xff, 0x00, 0x06, 0xfc, 0x01, 0x02, 0xf9,
  0x02, 0x06, 0x00, 0x03, 0x02, 0x01, 0x04, 0x04, 0x04, 0xff, 0x06, 0x00,
  0x04, 0x00, 0xfa, 0xff, 0x06, 0xff, 0x02, 0x03, 0xfc, 0x02, 0x02, 0xfb,
  0x01, 0xfd, 0x04, 0xfe, 0xfc, 0xff, 0xfd, 0x02, 0x03, 0x07, 0x03, 0xfa,
  0xff, 0x02, 0xfe, 0xff, 0x04, 0x02, 0xfb, 0xfa, 0x03, 0xff, 0x01, 0xfe,
  0xf6, 0x07, 0x2b, 0xb2, 0x03, 0x06, 0x09, 0xfb, 0xfc, 0x2a, 0xff, 0x02,
  0x0a, 0x00, 0x00, 0x08, 0xfb, 0x05, 0x03, 0x04, 0xfc, 0x09, 0x02, 0x07,
  0x02, 0x00, 0x02, 0x2c, 0x06, 0x00, 0x00, 0x04, 0xfd, 0x03, 0x02, 0x0b,
  0x03, 0xfc, 0x07, 0x03, 0x02, 0xa2, 0x05, 0x00, 0x03, 0x02, 0xfb, 0xfb,
  0x00, 0xff, 0x06, 0x06, 0xff, 0xfc, 0x03, 0x03, 0xfb, 0x02, 0x04, 0xfb,
  0x03, 0x02, 0xfb, 0x00, 0xfa, 0xfb, 0xf0, 0x08, 0x13, 0xfd, 0x01, 0xfc,
  0x06, 0x07, 0x01, 0xfb, 0xfd, 0x00, 0x00, 0x08, 0x03, 0x02, 0x02, 0xfe,
  0x0a, 0xfc, 0xfc, 0x04, 0xfa, 0x02, 0x01, 0x02, 0x06, 0x02, 0x01, 0xfb,
  0x01, 0xff, 0xfc, 0x05, 0xfb, 0x04, 0x00, 0x03, 0x01, 0x01, 0x07, 0x03,
  0xf7, 0x00, 0xfc, 0x00, 0xfe, 0x04, 0xfa, 0x04, 0xfc, 0xfd, 0xfc, 0xfc,
  0xff, 0x05, 0x03, 0xfe, 0x05, 0x01, 0x01, 0x05, 0xf8, 0xfc, 0x21, 0xc8,
  0xfd, 0x03, 0x03, 0xf7, 0x07, 0x1a, 0x03, 0x02, 0x05, 0xff, 0x01, 0x09,
  0x01, 0x06, 0xff, 0xfe, 0xfb, 0x05, 0x08, 0x03, 0x00, 0xfb, 0x02, 0x22,
  0x06, 0x07, 0xfc, 0x02, 0x03, 0x06, 0x05, 0x0a, 0x05, 0x05, 0x01, 0xfa,
  0x05, 0xc9, 0xff, 0x01, 0xfd, 0x04, 0x01, 0xff, 0xfc, 0x03, 0xfb, 0x06,
  0xfa, 0x04, 0x03, 0xfc, 0x00, 0x06, 0xfd, 0xfc, 0x00, 0x08, 0x03, 0x06,
  0xfc, 0xfc, 0xef, 0x00, 0x0b, 0x04, 0x02, 0xfa, 0x01, 0x06, 0x04, 0xfb,
  0x07, 0xf9, 0x02, 0x06, 0x05, 0x04, 0x06, 0x01, 0xfe, 0x02, 0x04, 0xfc,
  0x00, 0x06, 0x06, 0xfc, 0xfa, 0x04, 0x08, 0x08, 0x00, 0xff, 0xfa, 0xff,
  0x07, 0xfc, 0xfd, 0x01, 0x05, 0xff, 0x05, 0xfb, 0xf7, 0xff, 0x02, 0x00,
  0xfa, 0xfe, 0x04, 0xfb, 0x04, 0x03, 0xfe, 0xfd, 0x00, 0xff, 0x05, 0xff,
  0x07, 0x02, 0xfe, 0x01, 0xfb, 0xfd, 0x25, 0xca, 0x03, 0x02, 0x01, 0xf6,
  0xff, 0x1e, 0xfe, 0xfa, 0xfe, 0xfb, 0x05, 0xfd, 0x03, 0xfe, 0x02, 0xfa,
  0x00, 0x02, 0x03, 0x00, 0x04, 0x05, 0xfd, 0x1d, 0xfd, 0x04, 0xfc, 0x03,
  0xfb, 0xff, 0x02, 0x08, 0xff, 0x01, 0xfd, 0x00, 0x04, 0xc5, 0x03, 0x04,
  0xfa, 0x01, 0x00, 0xfa, 0xff, 0x02, 0x01, 0x05, 0xfe, 0xfc, 0xfa, 0x06,
  0x03, 0x04, 0x05, 0xff, 0xfb, 0x07, 0xfb, 0x04, 0xfc, 0x04, 0xc8, 0x03,
  0x0d, 0xfb, 0x06, 0x07, 0x01, 0xfc, 0x02, 0xfb, 0x02, 0xc5, 0x01, 0x06,
  0xfc, 0xfc, 0xfc, 0x05, 0xff, 0xfb, 0x00, 0x05, 0x04, 0x02, 0xfb, 0x04,
  0xf9, 0x02, 0x05, 0xff, 0xfe, 0x03, 0x05, 0xff, 0xfe, 0x02, 0x09, 0x01,
  0xfe, 0xf6, 0xfe, 0x03, 0xf3, 0x06, 0x06, 0x07, 0x05, 0x00, 0xfd, 0x01,
  0xf9, 0x04, 0x01, 0xfe, 0xff, 0x00, 0x02, 0xff, 0xfe, 0x01, 0x06, 0xff,
  0x01, 0x00, 0x03, 0x04, 0x03, 0xff, 0xfb, 0x02, 0xfd, 0x01, 0xfe, 0xf9,
  0x00, 0xff, 0xfd, 0xfa, 0xfb, 0x00, 0x03, 0xfd, 0x00, 0xfe, 0xfb, 0xff,
  0xff, 0xfc, 0x01, 0xfb, 0xfc, 0xfa, 0xfc, 0x00, 0xfb, 0x05, 0x02, 0x04,
  0xfd, 0xfa, 0x04, 0x01, 0xfa, 0x00, 0x06, 0xfa, 0x01, 0xff, 0x02, 0x01,
  0x05, 0x00, 0x06, 0xfd, 0xfd, 0x02, 0xfc, 0x02, 0xfe, 0x01, 0xfc, 0x06,
  0xff, 0xfd, 0xfa, 0x06, 0x02, 0x06, 0xfd, 0xfc, 0x03, 0xfe, 0xfa, 0x01,
  0x01, 0xf9, 0x02, 0xfd, 0x03, 0x00, 0xfd, 0xfa, 0xff, 0x05, 0xfc, 0x05,
  0x04, 0xfc, 0xfc, 0x03, 0xfe, 0xff, 0x04, 0x04, 0xfa, 0xff, 0xff, 0x00,
  0xfa, 0xff, 0x04, 0x06, 0x04, 0xfb, 0x02, 0x01, 0xfa, 0x03, 0xfa, 0xfb,
  0xff, 0xfa, 0xfb, 0xfd, 0xfd, 0x07, 0xfc, 0xfe, 0x02, 0x00, 0x01, 0x00,
  0xff, 0x04, 0x05, 0x01, 0xfc, 0xfb, 0xfc, 0xfb, 0x04, 0xfd, 0xfd, 0x03,
  0xfc, 0xff, 0xfa, 0x04, 0xfc, 0xff, 0x01, 0x06, 0xfe, 0xfc, 0xfa, 0xf9,
  0x01, 0xfd, 0x00, 0xfd, 0xfa, 0xfa, 0xff, 0xfa, 0xf9, 0x06, 0xfb, 0xf9,
  0xfb, 0x03, 0x05, 0x02, 0x01, 0xfd, 0x06, 0xfe, 0x00, 0x06, 0x02, 0xfa,
  0x01, 0x02, 0xfd, 0xfc, 0xfc, 0x03, 0x00, 0xfe, 0x02, 0xfc, 0x03, 0x00,
  0x04, 0x06, 0xfa, 0xff, 0x00, 0x03, 0x03, 0xfd, 0x03, 0x05, 0xfe, 0xfd,
  0x00, 0x06, 0xfb, 0x03, 0x02, 0x05, 0xff, 0xfb, 0x05, 0xfe, 0xfe, 0xfa,
  0x02, 0xff, 0xfe, 0xfe, 0x02, 0xfa, 0xfb, 0x06, 0x04, 0x01, 0xfa, 0xfc,
  0x06, 0x06, 0xfd, 0xfe, 0x00, 0x01, 0x02, 0x05, 0xff, 0x01, 0xff, 0x05,
  0xfa, 0xfb, 0x02, 0xfc, 0x03, 0xff, 0xf9, 0x05, 0xfc, 0x01, 0x06, 0xff,
  0x00, 0xff, 0xff, 0x03, 0x03, 0x04, 0xf9, 0xfb, 0xff, 0x01, 0xfa, 0x04,
  0xfe, 0x03, 0x05, 0xfd, 0xfc, 0xfd, 0xfb, 0x02, 0x01, 0xfe, 0x00, 0x04,
  0x06, 0x06, 0xff, 0xfc, 0x00, 0x00, 0x07, 0x06, 0x00, 0x04, 0xfa, 0xfe,
  0x06, 0xfe, 0x04, 0xfa, 0xfc, 0x03, 0xfb, 0x04, 0x00, 0x06, 0x02, 0xfe,
  0xfe, 0xfe, 0x04, 0xfe, 0xfc, 0xfe, 0xfa, 0x07, 0xfc, 0xfd, 0xfb, 0x01,
  0xfc, 0x02, 0x03, 0xff, 0xfe, 0x00, 0xfb, 0xfd, 0xfc, 0xfb, 0xfc, 0x02,
  0xfc, 0x06, 0xfe, 0x02, 0xfc, 0xff, 0xfa, 0x06, 0xf9, 0x00, 0x01, 0x06,
  0xfe, 0xff, 0xfa, 0x04, 0xfc, 0x04, 0x03, 0xfe, 0x01, 0x01, 0x03, 0xfc,
  0x01, 0xfb, 0xfb, 0xfb, 0xfb, 0xff, 0x02, 0x04, 0x01, 0x05, 0x05, 0xfa,
  0x03, 0xff, 0xfc, 0xfa, 0x02, 0x05, 0xff, 0x04, 0x01, 0xfe, 0xfe, 0x03,
  0x02, 0x05, 0xff, 0x04, 0xfd, 0xfa, 0x05, 0x00, 0x02, 0xfb, 0x00, 0x02,
  0xfb, 0x06, 0x00, 0xfd, 0xfa, 0xfa, 0xfe, 0x03, 0xfc, 0xff, 0xfc, 0x04,
  0xfc, 0x08, 0x25, 0xbb, 0x03, 0x03, 0x04, 0x02, 0x03, 0x21, 0xfe, 0xfb,
  0x03, 0x05, 0x04, 0x03, 0xff, 0x06, 0xff, 0xfb, 0x01, 0x06, 0xfb, 0x01,
  0xfd, 0xfb, 0xfa, 0x29, 0x00, 0x05, 0xfa, 0xfe, 0x06, 0x00, 0xff, 0x11,
  0xfc, 0x00, 0x07, 0x02, 0x02, 0xbb, 0xfb, 0x00, 0x03, 0x06, 0x04, 0xfd,
  0x02, 0x07, 0xfc, 0x08, 0x03, 0x02, 0x00, 0x04, 0x01, 0xfd, 0x03, 0x03,
  0x03, 0xfd, 0xfb, 0xfd, 0xfe, 0x03, 0xec, 0x01, 0x13, 0x02, 0x09, 0xfc,
  0x05, 0x06, 0xfd, 0xff, 0x08, 0xf7, 0x06, 0x06, 0x02, 0xff, 0x03, 0xfb,
  0xfe, 0xfd, 0xfa, 0x05, 0x06, 0xfa, 0xfb, 0x01, 0xfc, 0x02, 0x07, 0x01,
  0xfe, 0x06, 0x00, 0xff, 0x01, 0x00, 0xfd, 0x07, 0xfe, 0x03, 0x02, 0x05,
  0xf8, 0x05, 0x00, 0x07, 0x02, 0x05, 0x03, 0x01, 0x04, 0xfc, 0x08, 0x00,
  0x01, 0x02, 0x03, 0x01, 0x04, 0x05, 0x00, 0xff, 0xfe, 0x06, 0x2a, 0xb0,
  0x07, 0x00, 0xff, 0x01, 0xff, 0x20, 0x03, 0x06, 0x03, 0xfe, 0xf9, 0xfe,
  0x04, 0x01, 0xfb, 0x02, 0x08, 0x02, 0xfc, 0x08, 0x08, 0xfa, 0x05, 0x2b,
  0xfe, 0x02, 0x03, 0x04, 0x09, 0x07, 0xfb, 0x0f, 0xfc, 0x04, 0x00, 0xfa,
  0xf9, 0x96, 0xfb, 0xfe, 0xfc, 0x03, 0xfa, 0x04, 0xf9, 0x02, 0x05, 0x02,
  0x00, 0xff, 0x05, 0x06, 0xfb, 0xff, 0x03, 0x02, 0x01, 0x02, 0xff, 0xfd,
  0x04, 0xff, 0xf4, 0x04, 0x12, 0x08, 0x0a, 0xf9, 0xfd, 0x08, 0xfd, 0x05,
  0x08, 0xf7, 0x03, 0x09, 0x04, 0x03, 0x01, 0xfa, 0x09, 0x00, 0x02, 0x04,
  0xfd, 0x05, 0x04, 0xff, 0x06, 0x01, 0x07, 0x07, 0xfc, 0xfb, 0x01, 0x04,
  0xfc, 0x06, 0xff, 0x02, 0x01, 0x00, 0x07, 0x06, 0xf9, 0xfb, 0x04, 0x08,
  0x02, 0xfe, 0x07, 0xfe, 0x01, 0x05, 0xfc, 0xfb, 0xfe, 0x07, 0xfe, 0x01,
  0x07, 0x09, 0x01, 0x00, 0xfe, 0x02, 0xff, 0x06, 0x06, 0x05, 0x06, 0xf9,
  0xff, 0xfa, 0x01, 0xfe, 0xfb, 0x01, 0xfa, 0xfd, 0xfc, 0xfd, 0x03, 0x06,
  0xfa, 0xfe, 0x02, 0xfd, 0x00, 0x01, 0x06, 0x04, 0x04, 0xfe, 0x02, 0x05,
  0x00, 0xfa, 0x04, 0x02, 0xff, 0x06, 0xfc, 0xfb, 0x06, 0x03, 0xfe, 0xfc,
  0xfa, 0x06, 0x06, 0x01, 0x07, 0xfb, 0xfb, 0x01, 0x01, 0xfb, 0xff, 0xff,
  0xfc, 0x05, 0xff, 0x01, 0xfe, 0xff, 0xfb, 0xfc, 0x03, 0x02, 0xfc, 0xff,
  0xfa, 0x01, 0x04, 0xfd, 0xfd, 0xff, 0x06, 0xfc, 0x04, 0x01, 0xfa, 0xfd,
  0x01, 0xfa, 0xfc, 0xfe, 0x01, 0xfd, 0xfe, 0xfd, 0x00, 0x01, 0xfe, 0xfd,
  0xfe, 0x02, 0xf9, 0xfe, 0xff, 0x03, 0x00, 0xfa, 0xfe, 0x04, 0xf9, 0xff,
  0xfe, 0xf9, 0x06, 0xfa, 0x03, 0xfc, 0xfb, 0xfb, 0xff, 0x04, 0x04, 0xff,
  0x05, 0xff, 0x05, 0xff, 0xfb, 0xfb, 0x02, 0xfb, 0xfe, 0x04, 0x06, 0x06,
  0xfc, 0xfc, 0x00, 0x04, 0xfd, 0xfc, 0xff, 0xfe, 0xfe, 0x00, 0xfb, 0x00,
  0xfa, 0x01, 0xfb, 0x00, 0xfe, 0x00, 0x01, 0x03, 0x04, 0x06, 0x05, 0x01,
  0xfa, 0x04, 0x03, 0xff, 0x06, 0xfe, 0xff, 0xfa, 0x01, 0xfc, 0xfc, 0x03,
  0xfd, 0xfd, 0x05, 0xfe, 0x02, 0xfe, 0xfc, 0x02, 0xfc, 0xfa, 0x06, 0x05,
  0x05, 0xfe, 0xfb, 0xfd, 0x01, 0xfb, 0xfd, 0x06, 0x05, 0x07, 0xfd, 0xfe,
  0xfe, 0x05, 0x06, 0xfa, 0x03, 0xff, 0xff, 0xfd, 0x06, 0x02, 0x02, 0xfd,
  0x02, 0x05, 0xfe, 0x04, 0x03, 0x00, 0x02, 0x04, 0xff, 0x05, 0xfe, 0x01,
  0xfc, 0x01, 0x04, 0xff, 0x03, 0xfb, 0x03, 0x02, 0x04, 0xfd, 0xfd, 0xfc,
  0x00, 0x03, 0xfd, 0x04, 0x00, 0xfa, 0xfd, 0xff, 0x00, 0x00, 0xfa, 0x05,
  0x01, 0xfc, 0x03, 0x02, 0x05, 0xff, 0x04, 0x03, 0x03, 0x06, 0xfa, 0x01,
  0xfd, 0xfd, 0xfb, 0xfb, 0xfd, 0xfc, 0xff, 0x06, 0x07, 0xfb, 0xe3, 0x33,
  0x06, 0x07, 0x02, 0x0c, 0x05, 0xe5, 0x05, 0x05, 0xfc, 0x09, 0xfa, 0x00,
  0xfe, 0x04, 0xfa, 0x03, 0xfe, 0x04, 0x07, 0x00, 0xfc, 0xfe, 0x04, 0xe1,
  0xfe, 0x03, 0x06, 0xfe, 0xfe, 0xfc, 0xfa, 0xcf, 0xfe, 0xff, 0x09, 0x05,
  0xfb, 0x3e, 0x04, 0x04, 0xfe, 0xfc, 0xfb, 0xfe, 0x03, 0xff, 0xff, 0x02,
  0xff, 0x01, 0x00, 0xfa, 0xfe, 0xfd, 0x04, 0xfd, 0x00, 0x02, 0xfb, 0x04,
  0xfb, 0xfa, 0x0a, 0xff, 0xed, 0xfd, 0xfb, 0x02, 0xfe, 0x06, 0x04, 0xfa,
  0x05, 0x18, 0xfe, 0x05, 0xf9, 0xfb, 0x00, 0x01, 0x08, 0x02, 0xfb, 0x03,
  0xfe, 0xfc, 0x02, 0xfa, 0x05, 0x02, 0x02, 0xfa, 0xfe, 0x03, 0xfb, 0x00,
  0xfa, 0x04, 0x02, 0x01, 0xff, 0x0f, 0x08, 0x03, 0x0f, 0x03, 0xfc, 0x04,
  0xfc, 0x03, 0xfe, 0xff, 0xfe, 0xff, 0x06, 0xfe, 0x02, 0x02, 0x05, 0xfe,
  0x00, 0xfc, 0xff, 0x04, 0x00, 0x02, 0x1c, 0xd0, 0xfd, 0x03, 0x03, 0x04,
  0x00, 0x1a, 0x05, 0x02, 0x05, 0xfb, 0xff, 0x06, 0x06, 0x07, 0xfd, 0xfd,
  0x00, 0xfc, 0x06, 0xfd, 0x02, 0x01, 0xff, 0x16, 0x00, 0x00, 0x00, 0x04,
  0xfc, 0xff, 0x00, 0x09, 0xfe, 0xff, 0x04, 0x02, 0xfa, 0xc6, 0x03, 0x05,
  0xfd, 0xff, 0x06, 0x06, 0xfe, 0x03, 0x06, 0x06, 0x06, 0x02, 0xff, 0x02,
  0xfc, 0xff, 0x01, 0x04, 0x07, 0x02, 0xfd, 0xfe, 0x05, 0xfb, 0xf4, 0xfe,
  0x0c, 0x04, 0x06, 0x01, 0x06, 0x04, 0x01, 0xfd, 0x02, 0xf0, 0x02, 0x04,
  0xff, 0x01, 0x07, 0xfe, 0x03, 0xfc, 0xfc, 0x02, 0x02, 0xfd, 0xfb, 0xfd,
  0x05, 0xfb, 0x01, 0xfd, 0x01, 0xfa, 0x04, 0xff, 0x02, 0x01, 0xff, 0xfd,
  0x03, 0x02, 0xfd, 0xfb, 0xf6, 0x05, 0x04, 0x02, 0x02, 0xfb, 0x05, 0xfc,
  0xfe, 0x04, 0xfc, 0xfe, 0x03, 0xfe, 0xfa, 0x08, 0x07, 0xfe, 0x06, 0x01,
  0xd2, 0xd7, 0xff, 0xff, 0x00, 0x00, 0x00, 0x09, 0x10, 0x00, 0x00, 0x00,
  0x08, 0x00, 0x00, 0x00, 0x14, 0x00, 0x00, 0x00, 0x34, 0x00, 0x00, 0x00,
  0x02, 0x00, 0x00, 0x00, 0x40, 0x00, 0x00, 0x00, 0x80, 0x00, 0x00, 0x00,
  0x1c, 0x00, 0x00, 0x00, 0x73, 0x65, 0x71, 0x75, 0x65, 0x6e, 0x74, 0x69,
  0x61, 0x6c, 0x5f, 0x35, 0x2f, 0x64, 0x65, 0x6e, 0x73, 0x65, 0x5f, 0x33,
  0x33, 0x2f, 0x4d, 0x61, 0x74, 0x4d, 0x75, 0x6c, 0x00, 0x00, 0x00, 0x00,
  0xc4, 0xd7, 0xff, 0xff, 0x08, 0x00, 0x00, 0x00, 0x0c, 0x00, 0x00, 0x00,
  0x01, 0x00, 0x00, 0x00, 0x14, 0x4b, 0xdb, 0x3c, 0x01, 0x00, 0x00, 0x00,
  0x00, 0x00, 0x00, 0x00, 0x00, 0x00, 0x00, 0x00, 0x56, 0xd8, 0xff, 0xff,
  0x04, 0x00, 0x00, 0x00, 0x00, 0x02, 0x00, 0x00, 0x6d, 0xf7, 0xff, 0xff,
  0xc0, 0x02, 0x00, 0x00, 0xf1, 0x09, 0x00, 0x00, 0x5f, 0x0f, 0x00, 0x00,
  0x89, 0x00, 0x00, 0x00, 0xd3, 0x01, 0x00, 0x00, 0x0c, 0x01, 0x00, 0x00,
  0x3c, 0xf8, 0xff, 0xff, 0xe2, 0xff, 0xff, 0xff, 0x27, 0x0e, 0x00, 0x00,
  0x84, 0x00, 0x00, 0x00, 0x00, 0x00, 0x00, 0x00, 0x31, 0x02, 0x00, 0x00,
  0x53, 0xfb, 0xff, 0xff, 0xbb, 0xff, 0xff, 0xff, 0x06, 0x02, 0x00, 0x00,
  0xbd, 0xfe, 0xff, 0xff, 0x5f, 0xff, 0xff, 0xff, 0x8f, 0xff, 0xff, 0xff,
  0x98, 0xff, 0xff, 0xff, 0x84, 0x00, 0x00, 0x00, 0x0c, 0x01, 0x00, 0x00,
  0x0a, 0x00, 0x00, 0x00, 0xbf, 0x01, 0x00, 0x00, 0x51, 0x02, 0x00, 0x00,
  0x00, 0x00, 0x00, 0x00, 0x0d, 0xfb, 0xff, 0xff, 0x52, 0x0b, 0x00, 0x00,
  0x00, 0x00, 0x00, 0x00, 0x97, 0xff, 0xff, 0xff, 0xeb, 0xff, 0xff, 0xff,
  0xb3, 0xff, 0xff, 0xff, 0xf2, 0x00, 0x00, 0x00, 0xaa, 0x02, 0x00, 0x00,
  0xb8, 0xff, 0xff, 0xff, 0x5b, 0x05, 0x00, 0x00, 0x99, 0xff, 0xff, 0xff,
  0x84, 0xff, 0xff, 0xff, 0xda, 0xff, 0xff, 0xff, 0x00, 0x00, 0x00, 0x00,
  0xb6, 0x00, 0x00, 0x00, 0xe4, 0x0a, 0x00, 0x00, 0x00, 0x00, 0x00, 0x00,
  0x00, 0x00, 0x00, 0x00, 0x1b, 0x00, 0x00, 0x00, 0xb3, 0xff, 0xff, 0xff,
  0xb0, 0xff, 0xff, 0xff, 0x00, 0x00, 0x00, 0x00, 0x95, 0xff, 0xff, 0xff,
  0xc1, 0x00, 0x00, 0x00, 0x00, 0x00, 0x00, 0x00, 0x3c, 0x02, 0x00, 0x00,
  0xe9, 0xff, 0xff, 0xff, 0xb9, 0xff, 0xff, 0xff, 0x1c, 0xff, 0xff, 0xff,
  0x00, 0x00, 0x00, 0x00, 0x00, 0x00, 0x00, 0x00, 0xb0, 0xff, 0xff, 0xff,
  0xfa, 0x01, 0x00, 0x00, 0x00, 0x00, 0x00, 0x00, 0x3f, 0xfe, 0xff, 0xff,
  0xa4, 0x01, 0x00, 0x00, 0x00, 0x00, 0x00, 0x00, 0xc3, 0xff, 0xff, 0xff,
  0x00, 0x00, 0x00, 0x00, 0x00, 0x00, 0x00, 0x00, 0x53, 0x05, 0x00, 0x00,
  0xd6, 0x00, 0x00, 0x00, 0x6c, 0x09, 0x00, 0x00, 0xab, 0x01, 0x00, 0x00,
  0x56, 0x02, 0x00, 0x00, 0xf2, 0xff, 0xff, 0xff, 0xcf, 0x01, 0x00, 0x00,
  0x55, 0x02, 0x00, 0x00, 0x00, 0x00, 0x00, 0x00, 0x00, 0x00, 0x00, 0x00,
  0x09, 0xfe, 0xff, 0xff, 0x95, 0x04, 0x00, 0x00, 0x00, 0x00, 0x00, 0x00,
  0xaf, 0x02, 0x00, 0x00, 0x00, 0x00, 0x00, 0x00, 0x00, 0x00, 0x00, 0x00,
  0xbe, 0xff, 0xff, 0xff, 0x00, 0x00, 0x00, 0x00, 0x9d, 0x01, 0x00, 0x00,
  0xc0, 0xff, 0xff, 0xff, 0x00, 0x00, 0x00, 0x00, 0x8b, 0xff, 0xff, 0xff,
  0x00, 0x00, 0x00, 0x00, 0x00, 0x00, 0x00, 0x00, 0x00, 0x00, 0x00, 0x00,
  0xa7, 0xff, 0xff, 0xff, 0x00, 0x00, 0x00, 0x00, 0x94, 0xff, 0xff, 0xff,
  0xfd, 0x02, 0x00, 0x00, 0x7e, 0xff, 0xff, 0xff, 0x00, 0x00, 0x00, 0x00,
  0x00, 0x00, 0x00, 0x00, 0x00, 0x00, 0x00, 0x00, 0x00, 0x00, 0x00, 0x00,
  0xaa, 0xff, 0xff, 0xff, 0xc6, 0x00, 0x00, 0x00, 0x20, 0x02, 0x00, 0x00,
  0xa9, 0xff, 0xff, 0xff, 0x00, 0x00, 0x00, 0x00, 0xa8, 0x03, 0x00, 0x00,
  0xf1, 0x01, 0x00, 0x00, 0x00, 0x00, 0x00, 0x00, 0x53, 0xf8, 0xff, 0xff,
  0x00, 0x00, 0x00, 0x00, 0x00, 0x00, 0x00, 0x00, 0xce, 0x02, 0x00, 0x00,
  0xe5, 0xff, 0xff, 0xff, 0x95, 0xff, 0xff, 0xff, 0x00, 0x00, 0x00, 0x00,
  0x00, 0x00, 0x00, 0x00, 0xd5, 0xff, 0xff, 0xff, 0x00, 0x00, 0x00, 0x00,
  0x0b, 0x00, 0x00, 0x00, 0x8f, 0xff, 0xff, 0xff, 0x00, 0x00, 0x00, 0x00,
  0x8c, 0xfe, 0xff, 0xff, 0x00, 0x00, 0x00, 0x00, 0xda, 0x00, 0x00, 0x00,
  0xb8, 0x00, 0x00, 0x00, 0x36, 0x01, 0x00, 0x00, 0x00, 0x00, 0x00, 0x00,
  0x00, 0x00, 0x00, 0x00, 0x46, 0xda, 0xff, 0xff, 0x00, 0x00, 0x00, 0x02,
  0x10, 0x00, 0x00, 0x00, 0x07, 0x00, 0x00, 0x00, 0x10, 0x00, 0x00, 0x00,
  0x48, 0x00, 0x00, 0x00, 0x01, 0x00, 0x00, 0x00, 0x80, 0x00, 0x00, 0x00,
  0x35, 0x00, 0x00, 0x00, 0x73, 0x65, 0x71, 0x75, 0x65, 0x6e, 0x74, 0x69,
  0x61, 0x6c, 0x5f, 0x35, 0x2f, 0x64, 0x65, 0x6e, 0x73, 0x65, 0x5f, 0x33,
  0x32, 0x2f, 0x42, 0x69, 0x61, 0x73, 0x41, 0x64, 0x64, 0x2f, 0x52, 0x65,
  0x61, 0x64, 0x56, 0x61, 0x72, 0x69, 0x61, 0x62, 0x6c, 0x65, 0x4f, 0x70,
  0x2f, 0x72, 0x65, 0x73, 0x6f, 0x75, 0x72, 0x63, 0x65, 0x00, 0x00, 0x00,
  0x4c, 0xda, 0xff, 0xff, 0x08, 0x00, 0x00, 0x00, 0x0c, 0x00, 0x00, 0x00,
  0x01, 0x00, 0x00, 0x00, 0x4d, 0x5e, 0x9a, 0x39, 0x01, 0x00, 0x00, 0x00,
  0x00, 0x00, 0x00, 0x00, 0x00, 0x00, 0x00, 0x00, 0x00, 0x00, 0x00, 0x00,
  0xe2, 0xda, 0xff, 0xff, 0x04, 0x00, 0x00, 0x00, 0x00, 0x20, 0x00, 0x00,
  0x19, 0x17, 0xf7, 0xf3, 0x0a, 0x00, 0xfe, 0x08, 0x16, 0xff, 0x04, 0x10,
  0x0a, 0x06, 0x0b, 0x0f, 0x0d, 0x23, 0x0c, 0x05, 0xf6, 0x05, 0xfb, 0x07,
  0x00, 0x18, 0x06, 0xfc, 0xf2, 0xf7, 0xf4, 0x02, 0x01, 0x03, 0x02, 0x07,
  0x11, 0x15, 0x05, 0x10, 0x18, 0x06, 0x03, 0x04, 0x00, 0xfc, 0x01, 0x0f,
  0x04, 0x09, 0x01, 0xf0, 0x08, 0x07, 0x09, 0x13, 0x03, 0x0d, 0x09, 0x0a,
  0xf4, 0x02, 0xe9, 0x04, 0xf4, 0xfc, 0x09, 0xfc, 0x01, 0xf2, 0x06, 0xf7,
  0xf7, 0x0a, 0xff, 0xf3, 0xfe, 0x09, 0xf8, 0x00, 0x04, 0xe7, 0xfa, 0x0e,
  0x17, 0xfa, 0x05, 0xfa, 0x06, 0xfc, 0x0a, 0xfe, 0x0b, 0xfe, 0x0a, 0x08,
  0x06, 0xfe, 0x10, 0x0d, 0xf6, 0x0d, 0x0a, 0xfd, 0xea, 0xf3, 0x02, 0xf5,
  0xfb, 0xfe, 0x0e, 0x09, 0x12, 0xf4, 0xf5, 0xfe, 0x10, 0x01, 0x09, 0xf8,
  0x03, 0x0d, 0xee, 0x0d, 0x04, 0x10, 0x06, 0x0f, 0xef, 0xef, 0x07, 0xf2,
  0xfa, 0xfe, 0x10, 0x05, 0xf3, 0x05, 0xf1, 0x01, 0xff, 0xff, 0xfd, 0xf0,
  0x07, 0xcd, 0x02, 0x0c, 0x05, 0xf9, 0xf5, 0xd0, 0xfc, 0xda, 0x01, 0x01,
  0x0a, 0xf8, 0x00, 0x02, 0x05, 0x0f, 0xf2, 0x0f, 0xd1, 0xfb, 0xf2, 0xfe,
  0xcb, 0xea, 0x08, 0xfa, 0x0d, 0x07, 0xf7, 0xe0, 0x09, 0x04, 0x0e, 0xfb,
  0xea, 0xf6, 0x0b, 0xcc, 0xfa, 0x0b, 0xe1, 0x09, 0x0f, 0x02, 0x32, 0x0d,
  0xf5, 0xe6, 0x03, 0xf4, 0xfc, 0x0a, 0x07, 0xfd, 0xf8, 0x00, 0xfc, 0xf0,
  0x06, 0xf5, 0xf9, 0xf8, 0xf7, 0xb0, 0x07, 0x0c, 0x14, 0x0f, 0xf3, 0x9b,
  0x0e, 0xd1, 0x13, 0x05, 0xf6, 0x09, 0x0e, 0xf3, 0xf4, 0x0a, 0x01, 0xf7,
  0xc1, 0xf9, 0x09, 0x0f, 0xbd, 0xd7, 0x0b, 0x00, 0xf3, 0x03, 0x07, 0xa9,
  0xff, 0xf2, 0x05, 0x01, 0x04, 0xfb, 0xf9, 0xca, 0xf2, 0xfa, 0xbe, 0x00,
  0x0c, 0x0a, 0x39, 0xf5, 0x07, 0x07, 0x0a, 0x0c, 0xf1, 0xf1, 0x03, 0x10,
  0xfd, 0x0b, 0x0d, 0xff, 0x0b, 0x09, 0x00, 0x09, 0x05, 0x01, 0x0b, 0xfe,
  0xf9, 0x11, 0x03, 0x01, 0xf9, 0xf1, 0xf3, 0xf2, 0x01, 0xf4, 0xfb, 0xf7,
  0xfc, 0xf6, 0xf9, 0x09, 0xe4, 0xf4, 0xfd, 0x01, 0xfb, 0xf9, 0x0c, 0x0b,
  0xf8, 0x03, 0x0f, 0x09, 0x04, 0xfb, 0x0c, 0x07, 0xf7, 0xfe, 0xff, 0xfe,
  0xf9, 0x0a, 0x11, 0x09, 0xfa, 0x09, 0xee, 0x0c, 0xfd, 0x03, 0xfc, 0x01,
  0x0c, 0xf5, 0x12, 0x0d, 0xfb, 0x0f, 0x0e, 0x06, 0x04, 0x07, 0xf5, 0xf4,
  0x09, 0xec, 0xf9, 0x06, 0x0a, 0xfd, 0x07, 0xe7, 0xf7, 0xf6, 0xf8, 0x05,
  0x0f, 0xfa, 0xfb, 0x04, 0x0b, 0x08, 0x00, 0x08, 0xe6, 0xf4, 0xff, 0xf8,
  0xf7, 0x01, 0x0f, 0x07, 0x01, 0xfe, 0x03, 0xff, 0x14, 0xfc, 0x08, 0x0b,
  0xf5, 0x02, 0xf6, 0xfb, 0x0a, 0xfa, 0x0a, 0x03, 0xff, 0x0f, 0xee, 0x0d,
  0x00, 0xff, 0xf2, 0xfc, 0x01, 0x0d, 0x0b, 0x04, 0xee, 0x11, 0x00, 0xfd,
  0x0d, 0xf6, 0x0a, 0xf8, 0x0c, 0xee, 0x00, 0xfd, 0xff, 0x12, 0xf8, 0xf8,
  0x0f, 0xe4, 0x0a, 0x0f, 0xfa, 0xfc, 0xfc, 0xfb, 0x02, 0x11, 0x09, 0xf7,
  0xf4, 0x00, 0x08, 0xf3, 0xfd, 0xf3, 0x0c, 0x0d, 0xf4, 0x08, 0x09, 0xff,
  0xfc, 0x0e, 0x08, 0x07, 0xff, 0x0f, 0xf5, 0xfa, 0x04, 0xf7, 0xed, 0xfa,
  0x0f, 0xf7, 0xfc, 0x03, 0x0a, 0x03, 0x16, 0x05, 0xf7, 0xf6, 0xff, 0x04,
  0x02, 0x0e, 0xfd, 0x01, 0xf4, 0x04, 0x05, 0x04, 0x02, 0x13, 0x09, 0xfa,
  0xfb, 0xf6, 0xf8, 0x17, 0xf5, 0x1e, 0x12, 0xf3, 0xff, 0xf2, 0xfb, 0x0a,
  0x0c, 0x00, 0x0a, 0x0e, 0x1a, 0x0c, 0x0a, 0xf3, 0x2a, 0x03, 0x0e, 0xf0,
  0x06, 0xfb, 0xf5, 0x1a, 0xfc, 0x0b, 0x0f, 0x04, 0xfd, 0x0e, 0x0d, 0x1c,
  0xf8, 0x02, 0x16, 0xfa, 0xf1, 0xfa, 0xdd, 0x00, 0x0a, 0xf5, 0xf1, 0xfe,
  0xf2, 0xf2, 0xf0, 0x0c, 0x0c, 0xfa, 0xf1, 0xf6, 0x05, 0x03, 0x0b, 0xf7,
  0x03, 0xfd, 0x02, 0xfc, 0xf3, 0x08, 0x04, 0xfc, 0xfb, 0x01, 0x02, 0xfa,
  0xfd, 0x0e, 0x05, 0xf5, 0xff, 0x07, 0x09, 0x09, 0x0d, 0x02, 0x01, 0x0f,
  0x0e, 0xf9, 0x03, 0x0f, 0xf5, 0xf1, 0x0f, 0x0e, 0xf5, 0x01, 0xff, 0x09,
  0xf8, 0xfd, 0xf5, 0x08, 0xff, 0xf1, 0x02, 0xfb, 0xfc, 0xf9, 0x09, 0xf4,
  0x06, 0xef, 0xff, 0x0a, 0xfa, 0xff, 0xf6, 0xf5, 0x02, 0x05, 0xef, 0xfc,
  0xf9, 0xf7, 0xf4, 0x02, 0xf8, 0xdb, 0xf8, 0x05, 0xfe, 0x13, 0x0c, 0xe1,
  0x06, 0xda, 0x14, 0x0d, 0x06, 0x04, 0x07, 0xf7, 0x0a, 0x0d, 0x0f, 0xf5,
  0xd5, 0xf8, 0xf5, 0xff, 0xe2, 0xf7, 0x00, 0x09, 0xf8, 0xf9, 0xf1, 0xf4,
  0xfe, 0x0b, 0x07, 0x03, 0x0c, 0x02, 0xf8, 0xea, 0x04, 0x08, 0xfa, 0xfc,
  0x00, 0x10, 0x2c, 0x0a, 0x00, 0xfc, 0xf0, 0x07, 0x04, 0x05, 0xf5, 0x03,
  0xf5, 0x07, 0x01, 0xfe, 0x11, 0xfb, 0xff, 0xf4, 0xf3, 0xee, 0xf9, 0x0b,
  0xf4, 0xfd, 0xf8, 0xee, 0xfc, 0xed, 0x0b, 0x0f, 0xf4, 0xfe, 0x0e, 0xf3,
  0x0a, 0xf3, 0xf9, 0x05, 0xe6, 0x09, 0xf4, 0x05, 0xfd, 0x0a, 0x0f, 0x07,
  0xf1, 0x02, 0x0c, 0xf7, 0xfd, 0x03, 0x0a, 0x0d, 0x00, 0xf3, 0xf1, 0xea,
  0x03, 0x07, 0x0f, 0xff, 0x0d, 0x02, 0xf4, 0xf6, 0xff, 0xf8, 0xff, 0xf9,
  0x03, 0x0f, 0xf9, 0x05, 0xf7, 0x0c, 0x00, 0xff, 0x0c, 0xfc, 0x02, 0xf3,
  0xff, 0x0c, 0xf5, 0xf3, 0xf4, 0xfd, 0xfd, 0x05, 0x07, 0xf7, 0x01, 0xf2,
  0x06, 0x05, 0xf5, 0xff, 0xfe, 0x03, 0xfd, 0xfa, 0x07, 0x04, 0x03, 0x09,
  0xf1, 0x07, 0xfa, 0x05, 0x0d, 0x0c, 0xf4, 0x0a, 0x06, 0x09, 0x0f, 0xf3,
  0xf8, 0x0d, 0xfc, 0xf4, 0xfd, 0xfb, 0xf9, 0xfe, 0xf8, 0x00, 0x02, 0x06,
  0xf9, 0x09, 0x04, 0x08, 0x01, 0xf2, 0x14, 0xfd, 0xfb, 0x13, 0x08, 0xfd,
  0x04, 0xf9, 0x08, 0xfe, 0x13, 0xf9, 0xfd, 0x14, 0xf9, 0xfe, 0xf3, 0x01,
  0xfd, 0xe4, 0x02, 0x0a, 0x07, 0x0a, 0xf6, 0xf3, 0xfc, 0x0f, 0x0c, 0x0a,
  0xe1, 0x0d, 0xf9, 0x0a, 0xe6, 0x05, 0xf4, 0x08, 0xf5, 0xf1, 0x02, 0xec,
  0xf7, 0xfd, 0xfc, 0x02, 0xfc, 0xf2, 0xfd, 0xf4, 0x0b, 0x12, 0x02, 0xf4,
  0x01, 0xfa, 0x02, 0x04, 0x01, 0x0b, 0xf6, 0x00, 0xfe, 0xf1, 0xf8, 0xfc,
  0x0f, 0x01, 0x08, 0x0a, 0xf3, 0x10, 0xf7, 0x0e, 0x0b, 0x09, 0x05, 0x09,
  0x07, 0x08, 0x04, 0x02, 0xf6, 0xfd, 0xf4, 0xf8, 0xf9, 0xfa, 0x04, 0xf6,
  0xff, 0xfd, 0xff, 0x0f, 0x15, 0xfd, 0x0a, 0x07, 0x11, 0xf2, 0x09, 0xf3,
  0x0a, 0x02, 0x0d, 0xf1, 0x07, 0x05, 0x0a, 0xfa, 0x00, 0x09, 0x04, 0x0c,
  0xfd, 0x0f, 0xf2, 0x10, 0xfe, 0xf4, 0xf4, 0x0b, 0x0b, 0xee, 0x09, 0x0b,
  0xfe, 0xfc, 0xf9, 0x04, 0x01, 0xfa, 0xf8, 0xf2, 0xf3, 0x05, 0xf8, 0x06,
  0x02, 0xf4, 0x02, 0x01, 0xfd, 0xfd, 0xfc, 0x0a, 0x00, 0x08, 0x09, 0xf2,
  0x0e, 0xfa, 0x08, 0xf8, 0xf8, 0x0a, 0x04, 0xf0, 0xf4, 0xfa, 0xf8, 0xf7,
  0xfc, 0xf5, 0x0c, 0xfb, 0x04, 0xf2, 0x04, 0xfa, 0xfc, 0x0d, 0xfa, 0xf6,
  0xf4, 0x0b, 0x0f, 0xff, 0x0d, 0xf7, 0xfe, 0xfe, 0xf9, 0xf8, 0x0c, 0xf6,
  0x0c, 0xfc, 0x07, 0x0f, 0x04, 0xf5, 0x0d, 0xfa, 0x00, 0x0b, 0xfb, 0x0e,
  0xfd, 0x0b, 0xfb, 0xf2, 0x07, 0x00, 0x09, 0xfe, 0xfb, 0x09, 0x08, 0xf4,
  0xf6, 0xe4, 0x0a, 0x0a, 0xfe, 0xf6, 0xfb, 0xf7, 0xf8, 0x12, 0x04, 0x0f,
  0xf5, 0x08, 0xf8, 0x03, 0xf8, 0xef, 0x0b, 0xf1, 0x0e, 0xf1, 0xf6, 0xf7,
  0x0a, 0x02, 0x06, 0x02, 0xf4, 0x07, 0x0d, 0xe6, 0x04, 0x10, 0xf4, 0xf6,
  0xf3, 0x04, 0xf0, 0xf1, 0xf7, 0x01, 0x08, 0x0d, 0xf3, 0x0a, 0x05, 0x01,
  0xf2, 0x0b, 0xfc, 0xfa, 0x08, 0xf3, 0xfd, 0x05, 0xfe, 0xea, 0x0d, 0x01,
  0x0c, 0xfc, 0xfb, 0xe8, 0xf8, 0xf3, 0xf9, 0xf3, 0x08, 0x0c, 0x0c, 0x02,
  0xfb, 0xff, 0xf9, 0x00, 0xf2, 0xfa, 0xf1, 0x0f, 0xf8, 0x03, 0xf8, 0xf8,
  0xf1, 0x02, 0xf4, 0xec, 0xff, 0xfe, 0xf4, 0xfd, 0x09, 0xf8, 0x04, 0xf2,
  0x0d, 0x09, 0xf7, 0x0f, 0xf1, 0xf5, 0xf1, 0xf3, 0x00, 0xfb, 0x01, 0x0d,
  0xff, 0x0a, 0x0d, 0x08, 0xfd, 0x0b, 0xf5, 0x0b, 0xfc, 0x0a, 0xf2, 0xf6,
  0x06, 0xf5, 0x05, 0x08, 0x0e, 0xf3, 0x0a, 0xff, 0x0b, 0x02, 0xfa, 0x04,
  0x09, 0xfa, 0xf7, 0xf9, 0xfd, 0x0f, 0xfd, 0x0d, 0xe6, 0x02, 0x09, 0x0f,
  0xff, 0xfd, 0xf1, 0x0c, 0xfb, 0x02, 0x03, 0xf8, 0xf8, 0xfb, 0xf3, 0x0f,
  0xfb, 0x01, 0xf4, 0xef, 0x0d, 0x06, 0xf9, 0xf1, 0x08, 0xfe, 0xfa, 0xfc,
  0x07, 0xf3, 0x0c, 0x05, 0xfc, 0x05, 0xf6, 0xf1, 0x09, 0x01, 0x0b, 0x01,
  0x04, 0xfc, 0x0b, 0xf3, 0xf5, 0xf3, 0xf7, 0xf2, 0x04, 0x02, 0x0b, 0x05,
  0x08, 0xf5, 0x04, 0xfa, 0xf6, 0x00, 0xfd, 0x07, 0x0a, 0x0a, 0xfe, 0x0d,
  0x0c, 0xf6, 0xf0, 0x01, 0xfc, 0xfa, 0x04, 0xf1, 0xf4, 0x07, 0xfb, 0x01,
  0x03, 0xf6, 0xf2, 0xf4, 0x01, 0x02, 0xfe, 0x08, 0x03, 0xed, 0xf8, 0x0e,
  0x07, 0x08, 0x02, 0xf1, 0xf4, 0x01, 0xf4, 0x04, 0x0a, 0x0e, 0xfa, 0xf9,
  0x08, 0xfc, 0x01, 0x10, 0xf1, 0xf4, 0x04, 0x07, 0xf5, 0x05, 0xf9, 0x04,
  0x07, 0x05, 0x09, 0x0f, 0xfb, 0x0e, 0x05, 0xf8, 0xf4, 0xf2, 0xfc, 0x0c,
  0x08, 0xfd, 0xfd, 0x05, 0x01, 0xfe, 0xf1, 0x10, 0xf4, 0xf0, 0xfb, 0x0c,
  0xfa, 0xff, 0x03, 0xf2, 0xf0, 0x02, 0xef, 0xf1, 0xff, 0x00, 0x07, 0xfd,
  0xf9, 0xf1, 0x09, 0x0f, 0x0a, 0x0c, 0xfe, 0xf7, 0x07, 0xeb, 0x0e, 0x0b,
  0x04, 0x05, 0xf5, 0x0c, 0xef, 0xf9, 0xff, 0xf6, 0x0a, 0x06, 0xfe, 0xff,
  0x08, 0xeb, 0xff, 0xfc, 0x06, 0xff, 0xf2, 0xee, 0x09, 0xf6, 0xff, 0x06,
  0x0a, 0xff, 0xf3, 0x0f, 0x0e, 0x03, 0xf3, 0xf3, 0xee, 0xed, 0x07, 0xfb,
  0xe6, 0x04, 0xfb, 0xfd, 0x0f, 0xff, 0x01, 0xf4, 0x00, 0xf8, 0x03, 0x05,
  0x08, 0x0f, 0x0b, 0xda, 0x0e, 0xf1, 0xfb, 0xf5, 0xf4, 0x0d, 0x05, 0xf6,
  0x0a, 0xed, 0xf8, 0xf7, 0xff, 0xfd, 0x09, 0xff, 0xfd, 0x10, 0xf3, 0xf6,
  0x0c, 0x07, 0xf5, 0x04, 0x0a, 0x02, 0xf6, 0x05, 0x16, 0x0f, 0xff, 0xe7,
  0x00, 0xec, 0x0b, 0xfc, 0x0c, 0x09, 0xfc, 0xf7, 0xf3, 0x08, 0xff, 0xfa,
  0xed, 0x00, 0x00, 0x01, 0x02, 0xf7, 0x03, 0x0a, 0x0e, 0x04, 0x06, 0x02,
  0xfe, 0x03, 0x0c, 0x19, 0x04, 0x0f, 0x0c, 0xf4, 0xfc, 0x03, 0xfd, 0x02,
  0xfc, 0x07, 0xea, 0xf9, 0x0b, 0x08, 0x08, 0xf9, 0x0b, 0x0e, 0x02, 0x0d,
  0x05, 0xfb, 0x0c, 0xf5, 0x0c, 0xfa, 0x0a, 0x07, 0x09, 0xf3, 0xf7, 0xfc,
  0x0b, 0xf9, 0xf1, 0xf6, 0x00, 0x04, 0x0f, 0x00, 0x0d, 0x03, 0x00, 0x0a,
  0x09, 0xfa, 0xf4, 0x0a, 0xfc, 0x06, 0xf4, 0x05, 0x07, 0x04, 0xf6, 0x09,
  0xfc, 0xf9, 0x0f, 0xf9, 0x0a, 0xf1, 0x00, 0x18, 0x0b, 0xf5, 0x03, 0xfc,
  0x09, 0xfc, 0xfe, 0xf4, 0x0a, 0xf6, 0xef, 0xf6, 0xf7, 0x08, 0x00, 0xf6,
  0x05, 0xf5, 0x08, 0x11, 0x0a, 0x0c, 0x09, 0x09, 0x0f, 0xf2, 0xf6, 0x08,
  0x0d, 0xf6, 0x0a, 0x06, 0x10, 0x08, 0xf6, 0xf6, 0x00, 0xfc, 0xfe, 0x08,
  0xf7, 0xfa, 0x02, 0x0f, 0x0d, 0x00, 0xfe, 0x10, 0xef, 0x01, 0xf8, 0xfc,
  0x02, 0xf0, 0x02, 0x03, 0x0f, 0x10, 0x04, 0x08, 0x11, 0x02, 0x0d, 0x12,
  0x09, 0xf9, 0x02, 0xe4, 0x0b, 0x0b, 0x05, 0x00, 0x0a, 0x13, 0xfe, 0x0a,
  0xfc, 0x00, 0xf6, 0x04, 0x0c, 0x0d, 0x16, 0x12, 0xfc, 0xff, 0x02, 0x0b,
  0x08, 0xf8, 0x05, 0x01, 0x01, 0xf9, 0x04, 0x0b, 0x06, 0x09, 0x08, 0xee,
  0xfa, 0x01, 0xf8, 0x09, 0xf6, 0xf9, 0xfa, 0x0c, 0x04, 0x09, 0x00, 0x0f,
  0xf2, 0xf9, 0x04, 0xfc, 0xe5, 0x08, 0x00, 0xf4, 0x09, 0xfa, 0x02, 0x01,
  0x10, 0x03, 0xf3, 0x08, 0xfd, 0x0a, 0xfd, 0xe3, 0xf2, 0x08, 0xf8, 0x10,
  0xfe, 0x05, 0xef, 0xf7, 0x0d, 0x03, 0xf8, 0x06, 0xf7, 0xf3, 0x09, 0x02,
  0x0b, 0xf9, 0x0b, 0xf9, 0x0f, 0x0b, 0x06, 0xf5, 0xf1, 0xf9, 0xfc, 0x07,
  0x0f, 0xf3, 0xf6, 0xf9, 0x09, 0xf8, 0xf9, 0x01, 0x0c, 0x0d, 0xfd, 0xfd,
  0x08, 0x07, 0xfa, 0x06, 0x00, 0xfc, 0x02, 0xf7, 0xfc, 0xf5, 0xf8, 0xfc,
  0xf8, 0x06, 0x04, 0xf7, 0xf9, 0x05, 0xf3, 0xf5, 0xf8, 0xfe, 0xf4, 0xf7,
  0xfe, 0xf9, 0xfe, 0x00, 0xff, 0xfd, 0xf3, 0xfe, 0x11, 0x05, 0x03, 0x01,
  0x0a, 0xfa, 0x08, 0xfa, 0x11, 0x0e, 0x0b, 0xf3, 0x01, 0x0b, 0x03, 0xfc,
  0x0c, 0x0b, 0xf2, 0x01, 0x03, 0x10, 0x0c, 0xf9, 0x03, 0x12, 0xff, 0x08,
  0xf8, 0xf4, 0x0f, 0xf3, 0xf3, 0xf4, 0x03, 0xfb, 0x0c, 0x03, 0x0a, 0x0e,
  0x04, 0xf9, 0x09, 0xfe, 0x04, 0xfe, 0xf4, 0xf4, 0x0b, 0xf5, 0xfc, 0x02,
  0xf8, 0xf1, 0xf8, 0x15, 0x0f, 0x04, 0xf9, 0xfb, 0xf5, 0x10, 0xd8, 0xfb,
  0xf1, 0xec, 0x0e, 0x03, 0xf5, 0xf8, 0xfd, 0x08, 0x02, 0x08, 0xeb, 0x00,
  0xfa, 0x07, 0x10, 0xf3, 0x05, 0xd9, 0xf7, 0x09, 0x0a, 0x14, 0xf9, 0xd2,
  0x09, 0xc9, 0x01, 0xf7, 0x01, 0xf9, 0x04, 0xf0, 0x09, 0x0a, 0xf7, 0x07,
  0xd5, 0xef, 0x0c, 0x0d, 0xdc, 0xea, 0xf2, 0xff, 0xfa, 0xf1, 0x0e, 0xe7,
  0x02, 0x08, 0x04, 0xf6, 0x06, 0xfa, 0x02, 0xda, 0xef, 0x01, 0xf3, 0x03,
  0x07, 0x10, 0x32, 0xf2, 0xf6, 0xf4, 0x03, 0x03, 0x0e, 0xf3, 0xfe, 0x0e,
  0xf3, 0x04, 0xf6, 0xfe, 0x04, 0x10, 0x0f, 0x07, 0xfa, 0xff, 0x0f, 0x04,
  0xfb, 0xfa, 0x03, 0xf8, 0xfd, 0x05, 0xfc, 0x00, 0x04, 0xfc, 0x10, 0xf1,
  0x03, 0x02, 0xfe, 0x05, 0x06, 0x00, 0x00, 0x0c, 0xf7, 0xf1, 0xff, 0xff,
  0xf1, 0x10, 0xfa, 0x09, 0xf4, 0x06, 0x08, 0x0a, 0x0a, 0x02, 0xf5, 0x04,
  0xf5, 0xff, 0xf3, 0xf6, 0x01, 0xfd, 0xff, 0xfc, 0xff, 0xf7, 0xee, 0xf2,
  0x01, 0x0c, 0xf5, 0xf5, 0xfa, 0xf1, 0x08, 0xf2, 0xf9, 0xfc, 0xf1, 0xf3,
  0xef, 0x03, 0xf6, 0xf2, 0xf5, 0x01, 0xf2, 0xfe, 0xfc, 0xfd, 0x0a, 0x08,
  0xf2, 0x07, 0x02, 0xf1, 0xff, 0x0c, 0xf6, 0x01, 0x0b, 0xee, 0x06, 0x04,
  0x05, 0xff, 0xfa, 0xfc, 0x01, 0xf6, 0x00, 0x09, 0x0b, 0xf6, 0x0b, 0xfb,
  0xee, 0xfd, 0xf5, 0xff, 0x04, 0x04, 0xff, 0xf3, 0xf4, 0x08, 0xfc, 0xfc,
  0xf6, 0x06, 0x0f, 0x09, 0xf1, 0x02, 0x00, 0xf6, 0xf8, 0x02, 0xf5, 0x09,
  0xfd, 0x07, 0xf3, 0x08, 0x02, 0x09, 0x0d, 0xf3, 0xf7, 0xf7, 0xf6, 0x0f,
  0x05, 0x09, 0x05, 0xf6, 0xff, 0xf2, 0x0e, 0x0e, 0xfc, 0xf6, 0xff, 0x05,
  0xff, 0x02, 0x06, 0x0f, 0x09, 0xf3, 0x07, 0x03, 0x09, 0xfd, 0xf9, 0xfb,
  0x03, 0x0c, 0xf2, 0xf8, 0xfa, 0x01, 0x01, 0x0c, 0xf4, 0xfa, 0x06, 0x07,
  0xf8, 0x09, 0x05, 0x06, 0x02, 0xf2, 0x05, 0xfc, 0x0b, 0x07, 0xfe, 0xf8,
  0x02, 0xfb, 0xf2, 0xf6, 0xf6, 0x06, 0x0b, 0x01, 0xf0, 0x01, 0x0e, 0x0c,
  0xf9, 0xf0, 0x0f, 0xf3, 0xfa, 0xf6, 0x00, 0xfd, 0xf6, 0xfa, 0x10, 0x0e,
  0x03, 0x08, 0x0b, 0xfc, 0xf7, 0x08, 0x07, 0xf4, 0xf0, 0xfd, 0x0e, 0x0d,
  0xfd, 0x04, 0x09, 0x07, 0x0a, 0x01, 0x0a, 0x02, 0xf1, 0x09, 0xfc, 0xfe,
  0xfc, 0xfa, 0x05, 0x01, 0x02, 0xf3, 0x05, 0x09, 0xee, 0xf6, 0x07, 0x0e,
  0x05, 0x08, 0xf6, 0x03, 0x01, 0x09, 0xf4, 0x08, 0x09, 0x0d, 0x0d, 0xf4,
  0x02, 0xeb, 0xf4, 0x04, 0x00, 0x07, 0x0e, 0xe9, 0xf5, 0xf1, 0x07, 0xf3,
  0xf2, 0x06, 0xf7, 0x0f, 0xfb, 0xf8, 0xff, 0xfa, 0xe7, 0x02, 0x02, 0x01,
  0xe4, 0xee, 0x02, 0xf9, 0x0b, 0xf9, 0x07, 0x09, 0x04, 0xf8, 0x04, 0x09,
  0xfe, 0xf5, 0x0c, 0xdb, 0xfa, 0x00, 0xee, 0xfc, 0x0e, 0x0d, 0xf4, 0x0e,
  0xfe, 0x04, 0x08, 0xf6, 0x02, 0xf2, 0x04, 0x01, 0x09, 0x07, 0x06, 0xf5,
  0x0c, 0x02, 0xfb, 0xf1, 0x04, 0x03, 0xf1, 0xfd, 0x13, 0x0f, 0x00, 0xf4,
  0x07, 0xf2, 0x10, 0x01, 0x06, 0xfa, 0x0d, 0xfb, 0xfb, 0xff, 0xf4, 0xf7,
  0xe3, 0x03, 0xf5, 0xf5, 0xf0, 0xef, 0x06, 0x03, 0xfc, 0xff, 0xf5, 0xf6,
  0x12, 0x08, 0x0d, 0xf6, 0x07, 0xf2, 0x02, 0xe4, 0x03, 0x00, 0x05, 0xf4,
  0x00, 0x0e, 0xf2, 0xf9, 0x0b, 0x08, 0xf5, 0x07, 0xfd, 0x0b, 0xfe, 0x06,
  0xfd, 0x00, 0xf9, 0xf6, 0xf5, 0x08, 0xf8, 0x07, 0xf8, 0x02, 0xf2, 0xfb,
  0x06, 0xfc, 0x05, 0xee, 0x01, 0xf0, 0x0b, 0xf1, 0x0e, 0x09, 0xfa, 0x10,
  0x06, 0xf8, 0x00, 0xfd, 0x05, 0xf0, 0xf4, 0x05, 0x02, 0xfa, 0x0d, 0x03,
  0x0d, 0xf5, 0xf2, 0x05, 0xef, 0xfd, 0x04, 0x04, 0xf1, 0x0e, 0xfd, 0xfb,
  0x06, 0xef, 0xf1, 0x09, 0xf3, 0x02, 0x09, 0x05, 0xfa, 0xff, 0xfe, 0xf5,
  0xfc, 0x06, 0x06, 0xef, 0xfc, 0xfd, 0xf9, 0xf3, 0x00, 0xfe, 0xff, 0x05,
  0xf6, 0xd7, 0xf7, 0x0c, 0x12, 0xfc, 0xf3, 0xfe, 0xf4, 0xe3, 0x10, 0xf6,
  0x07, 0x0b, 0x03, 0x06, 0x0a, 0x0c, 0xfe, 0xf0, 0xf4, 0x07, 0x0c, 0x03,
  0xf3, 0xe5, 0x06, 0xfd, 0x03, 0xff, 0x08, 0xf5, 0x08, 0xff, 0xff, 0x0c,
  0x01, 0x04, 0xf6, 0xdb, 0xfd, 0x03, 0xe3, 0xf8, 0xf5, 0x0d, 0x2d, 0x04,
  0x01, 0xfe, 0xf8, 0x06, 0xfd, 0xf4, 0x06, 0xfa, 0x0b, 0xf7, 0x08, 0x10,
  0xfe, 0xff, 0x03, 0x08, 0xfd, 0xf8, 0x06, 0xf8, 0x03, 0x0d, 0xfb, 0xf3,
  0x0a, 0x07, 0xff, 0xf6, 0xf6, 0xfb, 0xf7, 0xf8, 0x0c, 0x08, 0xff, 0xf5,
  0xf0, 0x00, 0xf7, 0x09, 0x02, 0x01, 0xf5, 0x05, 0x07, 0xf1, 0x05, 0x0c,
  0xfa, 0xf5, 0x06, 0xf9, 0xf0, 0xf4, 0x08, 0x0c, 0xf4, 0x0d, 0xf8, 0xfc,
  0xfc, 0xfd, 0x03, 0xf1, 0xfa, 0x0d, 0xee, 0xf5, 0x0a, 0x09, 0x0b, 0xff,
  0x07, 0xf8, 0x08, 0xf8, 0xf4, 0x07, 0x0f, 0xfb, 0x01, 0xf0, 0xff, 0x06,
  0xef, 0x02, 0x09, 0xf8, 0xfb, 0x02, 0xfd, 0x00, 0x0c, 0xf9, 0x0b, 0xff,
  0x0e, 0x0c, 0xfa, 0x06, 0x03, 0xf4, 0x07, 0xf3, 0xf8, 0xf6, 0x08, 0xf9,
  0xf3, 0xf8, 0x0c, 0xef, 0x00, 0x07, 0x01, 0xf4, 0xfd, 0x0f, 0x04, 0xfe,
  0xef, 0xf2, 0xf9, 0x05, 0xfe, 0x04, 0xe8, 0xfb, 0xf2, 0x05, 0xff, 0x07,
  0xfb, 0x02, 0xf8, 0xfe, 0x08, 0x00, 0x03, 0x09, 0x03, 0x03, 0xfc, 0xf4,
  0x11, 0x04, 0xfc, 0x01, 0x08, 0x11, 0x10, 0xec, 0x0c, 0xfc, 0x0d, 0xf3,
  0x05, 0x0f, 0x0a, 0x02, 0x0a, 0xfa, 0xf5, 0xf4, 0xfb, 0xf8, 0x03, 0xf6,
  0xf5, 0x03, 0xfa, 0x09, 0x00, 0x07, 0xf1, 0x01, 0x0a, 0xf4, 0x06, 0x10,
  0xfe, 0xf1, 0xfc, 0xe8, 0xf9, 0x0c, 0xff, 0xf2, 0x08, 0x0e, 0xfd, 0xf7,
  0x0d, 0x03, 0xf4, 0x00, 0x05, 0xf6, 0x02, 0xf7, 0xfe, 0xf3, 0xf2, 0x0a,
  0xff, 0x08, 0xfe, 0x0b, 0xf6, 0x05, 0x07, 0xfd, 0xf7, 0x09, 0xfb, 0x09,
  0x07, 0x03, 0xfc, 0xfc, 0xfa, 0xfe, 0x0b, 0x0f, 0xf8, 0xf8, 0xff, 0x04,
  0xf8, 0x0d, 0x0a, 0xf8, 0x0e, 0xfc, 0xfe, 0x0e, 0x02, 0xf5, 0xf4, 0x01,
  0x00, 0x00, 0x09, 0xf2, 0x0f, 0x09, 0x0b, 0x0d, 0xf5, 0x04, 0xf6, 0x07,
  0x05, 0x0e, 0xf6, 0xf7, 0xf0, 0x05, 0xef, 0x02, 0xf6, 0x00, 0x0e, 0xf9,
  0x04, 0xfa, 0xf9, 0xf5, 0x03, 0x05, 0x07, 0x02, 0xff, 0xfe, 0xf5, 0xf1,
  0x0d, 0x0c, 0x09, 0x0a, 0xff, 0xfe, 0xf4, 0x06, 0x01, 0x08, 0x0c, 0x06,
  0xfa, 0x0c, 0xfa, 0x09, 0xfd, 0xf1, 0xf6, 0x09, 0xf8, 0x00, 0xfb, 0x09,
  0xf5, 0x10, 0x01, 0x09, 0xf5, 0xf8, 0xf2, 0x3b, 0xfe, 0xf1, 0xf6, 0xef,
  0xf3, 0xfe, 0xf7, 0xfe, 0x01, 0x06, 0x04, 0xf2, 0xf3, 0xee, 0xf2, 0x0e,
  0xff, 0x09, 0x14, 0xfc, 0xe7, 0x07, 0xf7, 0x09, 0x02, 0x07, 0x09, 0xef,
  0x09, 0x9a, 0x00, 0x16, 0x01, 0x0e, 0xff, 0xb1, 0xf0, 0xbb, 0x0e, 0x01,
  0xfd, 0x0d, 0x05, 0xf5, 0xf5, 0x07, 0xfb, 0xfc, 0xcd, 0xfa, 0x04, 0x0d,
  0xce, 0xd5, 0xf9, 0x08, 0xfe, 0x0b, 0xf8, 0xaf, 0x12, 0x06, 0xfe, 0xeb,
  0xfb, 0xf9, 0xf7, 0xb9, 0xfd, 0xfd, 0xae, 0x0a, 0xf6, 0x03, 0x31, 0x0d,
  0x03, 0xfa, 0x08, 0xf4, 0x0c, 0x08, 0xf4, 0x04, 0x07, 0xff, 0xf7, 0x0a,
  0x03, 0xf5, 0xf9, 0xfb, 0x04, 0xfa, 0x07, 0x04, 0x04, 0xfe, 0x06, 0xfe,
  0xf3, 0x0d, 0x02, 0x06, 0x09, 0xff, 0x08, 0xfc, 0xf3, 0x09, 0x03, 0xf6,
  0xfd, 0xf8, 0x06, 0xfa, 0xf0, 0xf1, 0xfa, 0x07, 0x0c, 0x08, 0xf9, 0xf6,
  0x0c, 0xf1, 0xfa, 0x09, 0x0d, 0x0f, 0xf5, 0x01, 0xff, 0xfb, 0x00, 0xfb,
  0xfc, 0xfb, 0xf2, 0x09, 0xff, 0x01, 0xfa, 0x0a, 0x05, 0x09, 0x03, 0xfc,
  0x00, 0x03, 0x03, 0x0d, 0xf7, 0xf8, 0x0e, 0x0c, 0x00, 0x09, 0x03, 0xfd,
  0x09, 0x06, 0xf9, 0x07, 0x09, 0xfa, 0xfd, 0xfc, 0x0a, 0xf6, 0x07, 0x0d,
  0x01, 0x02, 0x0d, 0xf5, 0x04, 0xfd, 0xff, 0x02, 0xf3, 0x09, 0x06, 0xf8,
  0xf2, 0xf5, 0xf2, 0xfe, 0x09, 0x02, 0xff, 0x03, 0xf7, 0x02, 0x0f, 0xf5,
  0xf5, 0xf9, 0x08, 0xf1, 0x0e, 0x02, 0xfc, 0x02, 0xf1, 0x09, 0x07, 0xf0,
  0xfc, 0x02, 0xf4, 0x10, 0x0b, 0x0c, 0x05, 0xf4, 0xfd, 0x04, 0xfa, 0xff,
  0x0c, 0xed, 0x07, 0xf7, 0xf7, 0x01, 0xf1, 0xf8, 0xf5, 0xea, 0x04, 0x00,
  0xf2, 0x0a, 0x00, 0x03, 0xf9, 0xfe, 0xfd, 0x0c, 0xfe, 0x0c, 0x05, 0xfe,
  0xf9, 0xfa, 0x0e, 0x0f, 0xf1, 0x02, 0x04, 0xee, 0xfd, 0xf5, 0xf2, 0x11,
  0x0a, 0x10, 0x03, 0xef, 0x05, 0x00, 0x08, 0x02, 0x0f, 0x00, 0xf4, 0x0b,
  0x06, 0x0e, 0x00, 0x09, 0xf3, 0xf2, 0xf3, 0xfe, 0x09, 0x03, 0x08, 0xfb,
  0xf1, 0x0d, 0xf8, 0x03, 0xef, 0x0c, 0xf5, 0xfd, 0x0d, 0x0b, 0xfe, 0xfb,
  0x0a, 0x0b, 0x06, 0x0a, 0xf3, 0xfa, 0x0d, 0xf0, 0x00, 0xf1, 0xf3, 0xf6,
  0xf9, 0x04, 0x03, 0x10, 0xfb, 0xfd, 0x08, 0xf9, 0x0a, 0x06, 0xf0, 0xf5,
  0x06, 0xf3, 0x08, 0xf7, 0xff, 0x02, 0xf5, 0xfb, 0x08, 0x04, 0xef, 0x06,
  0x00, 0x0b, 0xf7, 0xfe, 0xfb, 0xfd, 0xf8, 0x0b, 0xf5, 0x0b, 0x0c, 0xf4,
  0xf3, 0x0c, 0xfc, 0x05, 0x0c, 0x0c, 0xf1, 0xee, 0x0d, 0xf4, 0xfb, 0xfb,
  0xf6, 0xf8, 0x03, 0x08, 0xfe, 0xfe, 0xfa, 0x05, 0x0a, 0x04, 0xf3, 0xff,
  0xf8, 0x02, 0xf7, 0xfa, 0xfa, 0xf2, 0x09, 0xf9, 0x0b, 0x01, 0x0e, 0xf2,
  0x01, 0x01, 0x02, 0xf5, 0xf6, 0xf4, 0xf7, 0xfc, 0xfb, 0xf4, 0x06, 0x0f,
  0xf1, 0x0b, 0xfb, 0xfd, 0xfd, 0x0d, 0xfb, 0x01, 0x01, 0xfd, 0xf3, 0x0b,
  0x0e, 0x09, 0x0d, 0x03, 0xf8, 0xf2, 0x07, 0xfc, 0x0f, 0xf0, 0xfe, 0xf6,
  0x02, 0x08, 0x07, 0xff, 0xf1, 0x06, 0x0b, 0x05, 0xf1, 0x07, 0xfe, 0x0d,
  0xfd, 0x06, 0xf8, 0x0b, 0x0d, 0x10, 0x09, 0xf0, 0xff, 0xf4, 0x04, 0xf8,
  0x04, 0x09, 0x04, 0x00, 0x04, 0xfe, 0x07, 0x00, 0xf2, 0x0d, 0xf7, 0x0c,
  0xfc, 0x00, 0x09, 0x03, 0x05, 0x01, 0xf9, 0xfd, 0x08, 0x06, 0xfb, 0xfc,
  0xf9, 0xfe, 0xf5, 0x04, 0x0a, 0xf1, 0x04, 0xf9, 0x09, 0x06, 0x01, 0x0e,
  0xfc, 0xfb, 0x0b, 0xf8, 0xf9, 0x08, 0xfe, 0xf5, 0xf4, 0x09, 0xf4, 0x07,
  0x09, 0xf6, 0xfb, 0xf4, 0xf1, 0x01, 0xf0, 0x03, 0xf5, 0xfd, 0xfd, 0xf3,
  0x0e, 0x02, 0xfa, 0xf5, 0x0b, 0xf3, 0xf7, 0x0c, 0xfb, 0x06, 0x0a, 0xf3,
  0x05, 0xf4, 0x05, 0xf8, 0xf7, 0x0c, 0x02, 0xf5, 0xf8, 0x06, 0xf4, 0x08,
  0x03, 0xfe, 0x01, 0x09, 0xfb, 0x04, 0x0a, 0xf9, 0x0b, 0x0b, 0x10, 0x08,
  0x01, 0xf7, 0x04, 0xfe, 0x03, 0x0b, 0x0a, 0xfa, 0xf8, 0xeb, 0xfd, 0xfb,
  0xfe, 0xfb, 0x0f, 0xf3, 0x09, 0xf8, 0x0b, 0xf0, 0x09, 0x04, 0x04, 0x00,
  0xf4, 0xfc, 0xfb, 0x04, 0xe7, 0x0a, 0x02, 0xf8, 0xfb, 0x05, 0xfc, 0x03,
